{
  "version": "1.0",
  "truncation": null,
  "padding": null,
  "added_tokens": [
    {
      "id": 0,
      "content": "<|endoftext|>",
      "single_word": false,
      "lstrip": false,
      "rstrip": false,
      "normalized": false,
      "special": true
    },
    {
      "id": 1,
      "content": "<|im_start|>",
      "single_word": false,
      "lstrip": false,
      "rstrip": false,
      "normalized": false,
      "special": true
    },
    {
      "id": 2,
      "content": "<|im_end|>",
      "single_word": false,
      "lstrip": false,
      "rstrip": false,
      "normalized": false,
      "special": true
    },
    {
      "id": 3,
      "content": "<|object_ref_start|>",
      "single_word": false,
      "lstrip": false,
      "rstrip": false,
      "normalized": false,
      "special": true
    },
    {
      "id": 4,
      "content": "<|object_ref_end|>",
      "single_word": false,
      "lstrip": false,
      "rstrip": false,
      "normalized": false,
      "special": true
    },
    {
      "id": 5,
      "content": "<|box_start|>",
      "single_word": false,
      "lstrip": false,
      "rstrip": false,
      "normalized": false,
      "special": true
    },
    {
      "id": 6,
      "content": "<|box_end|>",
      "single_word": false,
      "lstrip": false,
      "rstrip": false,
      "normalized": false,
      "special": true
    },
    {
      "id": 7,
      "content": "<|quad_start|>",
      "single_word": false,
      "lstrip": false,
      "rstrip": false,
      "normalized": false,
      "special": true
    },
    {
      "id": 8,
      "content": "<|quad_end|>",
      "single_word": false,
      "lstrip": false,
      "rstrip": false,
      "normalized": false,
      "special": true
    },
    {
      "id": 9,
      "content": "<|vision_start|>",
      "single_word": false,
      "lstrip": false,
      "rstrip": false,
      "normalized": false,
      "special": true
    },
    {
      "id": 10,
      "content": "<|vision_end|>",
      "single_word": false,
      "lstrip": false,
      "rstrip": false,
      "normalized": false,
      "special": true
    },
    {
      "id": 11,
      "content": "<|vision_pad|>",
      "single_word": false,
      "lstrip": false,
      "rstrip": false,
      "normalized": false,
      "special": true
    },
    {
      "id": 12,
      "content": "<|image_pad|>",
      "single_word": false,
      "lstrip": false,
      "rstrip": false,
      "normalized": false,
      "special": true
    },
    {
      "id": 13,
      "content": "<|video_pad|>",
      "single_word": false,
      "lstrip": false,
      "rstrip": false,
      "normalized": false,
      "special": true
    },
    {
      "id": 14,
      "content": "<tool_call>",
      "single_word": false,
      "lstrip": false,
      "rstrip": false,
      "normalized": false,
      "special": true
    },
    {
      "id": 15,
      "content": "</tool_call>",
      "single_word": false,
      "lstrip": false,
      "rstrip": false,
      "normalized": false,
      "special": true
    },
    {
      "id": 16,
      "content": "<|fim_prefix|>",
      "single_word": false,
      "lstrip": false,
      "rstrip": false,
      "normalized": false,
      "special": true
    },
    {
      "id": 17,
      "content": "<|fim_middle|>",
      "single_word": false,
      "lstrip": false,
      "rstrip": false,
      "normalized": false,
      "special": true
    },
    {
      "id": 18,
      "content": "<|fim_suffix|>",
      "single_word": false,
      "lstrip": false,
      "rstrip": false,
      "normalized": false,
      "special": true
    },
    {
      "id": 19,
      "content": "<|fim_pad|>",
      "single_word": false,
      "lstrip": false,
      "rstrip": false,
      "normalized": false,
      "special": true
    },
    {
      "id": 20,
      "content": "<|repo_name|>",
      "single_word": false,
      "lstrip": false,
      "rstrip": false,
      "normalized": false,
      "special": true
    },
    {
      "id": 21,
      "content": "<|file_sep|>",
      "single_word": false,
      "lstrip": false,
      "rstrip": false,
      "normalized": false,
      "special": true
    }
  ],
  "normalizer": null,
  "pre_tokenizer": {
    "type": "ByteLevel",
    "add_prefix_space": false,
    "trim_offsets": true,
    "use_regex": true
  },
  "post_processor": {
    "type": "ByteLevel",
    "add_prefix_space": true,
    "trim_offsets": false,
    "use_regex": true
  },
  "decoder": {
    "type": "ByteLevel",
    "add_prefix_space": true,
    "trim_offsets": true,
    "use_regex": true
  },
  "model": {
    "type": "BPE",
    "dropout": null,
    "unk_token": null,
    "continuing_subword_prefix": null,
    "end_of_word_suffix": null,
    "fuse_unk": false,
    "byte_fallback": false,
    "ignore_merges": false,
    "vocab": {
      "<|endoftext|>": 0,
      "<|im_start|>": 1,
      "<|im_end|>": 2,
      "<|object_ref_start|>": 3,
      "<|object_ref_end|>": 4,
      "<|box_start|>": 5,
      "<|box_end|>": 6,
      "<|quad_start|>": 7,
      "<|quad_end|>": 8,
      "<|vision_start|>": 9,
      "<|vision_end|>": 10,
      "<|vision_pad|>": 11,
      "<|image_pad|>": 12,
      "<|video_pad|>": 13,
      "<tool_call>": 14,
      "</tool_call>": 15,
      "<|fim_prefix|>": 16,
      "<|fim_middle|>": 17,
      "<|fim_suffix|>": 18,
      "<|fim_pad|>": 19,
      "<|repo_name|>": 20,
      "<|file_sep|>": 21,
      "!": 22,
      "\"": 23,
      "#": 24,
      "$": 25,
      "%": 26,
      "&": 27,
      "'": 28,
      "(": 29,
      ")": 30,
      "*": 31,
      "+": 32,
      ",": 33,
      "-": 34,
      ".": 35,
      "/": 36,
      "0": 37,
      "1": 38,
      "2": 39,
      "3": 40,
      "4": 41,
      "5": 42,
      "6": 43,
      "7": 44,
      "8": 45,
      "9": 46,
      ":": 47,
      ";": 48,
      "<": 49,
      "=": 50,
      ">": 51,
      "?": 52,
      "@": 53,
      "A": 54,
      "B": 55,
      "C": 56,
      "D": 57,
      "E": 58,
      "F": 59,
      "G": 60,
      "H": 61,
      "I": 62,
      "J": 63,
      "K": 64,
      "L": 65,
      "M": 66,
      "N": 67,
      "O": 68,
      "P": 69,
      "Q": 70,
      "R": 71,
      "S": 72,
      "T": 73,
      "U": 74,
      "V": 75,
      "W": 76,
      "X": 77,
      "Y": 78,
      "Z": 79,
      "[": 80,
      "\\": 81,
      "]": 82,
      "^": 83,
      "_": 84,
      "`": 85,
      "a": 86,
      "b": 87,
      "c": 88,
      "d": 89,
      "e": 90,
      "f": 91,
      "g": 92,
      "h": 93,
      "i": 94,
      "j": 95,
      "k": 96,
      "l": 97,
      "m": 98,
      "n": 99,
      "o": 100,
      "p": 101,
      "q": 102,
      "r": 103,
      "s": 104,
      "t": 105,
      "u": 106,
      "v": 107,
      "w": 108,
      "x": 109,
      "y": 110,
      "z": 111,
      "{": 112,
      "|": 113,
      "}": 114,
      "~": 115,
      "¡": 116,
      "¢": 117,
      "£": 118,
      "¤": 119,
      "¥": 120,
      "¦": 121,
      "§": 122,
      "¨": 123,
      "©": 124,
      "ª": 125,
      "«": 126,
      "¬": 127,
      "®": 128,
      "¯": 129,
      "°": 130,
      "±": 131,
      "²": 132,
      "³": 133,
      "´": 134,
      "µ": 135,
      "¶": 136,
      "·": 137,
      "¸": 138,
      "¹": 139,
      "º": 140,
      "»": 141,
      "¼": 142,
      "½": 143,
      "¾": 144,
      "¿": 145,
      "À": 146,
      "Á": 147,
      "Â": 148,
      "Ã": 149,
      "Ä": 150,
      "Å": 151,
      "Æ": 152,
      "Ç": 153,
      "È": 154,
      "É": 155,
      "Ê": 156,
      "Ë": 157,
      "Ì": 158,
      "Í": 159,
      "Î": 160,
      "Ï": 161,
      "Ð": 162,
      "Ñ": 163,
      "Ò": 164,
      "Ó": 165,
      "Ô": 166,
      "Õ": 167,
      "Ö": 168,
      "×": 169,
      "Ø": 170,
      "Ù": 171,
      "Ú": 172,
      "Û": 173,
      "Ü": 174,
      "Ý": 175,
      "Þ": 176,
      "ß": 177,
      "à": 178,
      "á": 179,
      "â": 180,
      "ã": 181,
      "ä": 182,
      "å": 183,
      "æ": 184,
      "ç": 185,
      "è": 186,
      "é": 187,
      "ê": 188,
      "ë": 189,
      "ì": 190,
      "í": 191,
      "î": 192,
      "ï": 193,
      "ð": 194,
      "ñ": 195,
      "ò": 196,
      "ó": 197,
      "ô": 198,
      "õ": 199,
      "ö": 200,
      "÷": 201,
      "ø": 202,
      "ù": 203,
      "ú": 204,
      "û": 205,
      "ü": 206,
      "ý": 207,
      "þ": 208,
      "ÿ": 209,
      "Ā": 210,
      "ā": 211,
      "Ă": 212,
      "ă": 213,
      "Ą": 214,
      "ą": 215,
      "Ć": 216,
      "ć": 217,
      "Ĉ": 218,
      "ĉ": 219,
      "Ċ": 220,
      "ċ": 221,
      "Č": 222,
      "č": 223,
      "Ď": 224,
      "ď": 225,
      "Đ": 226,
      "đ": 227,
      "Ē": 228,
      "ē": 229,
      "Ĕ": 230,
      "ĕ": 231,
      "Ė": 232,
      "ė": 233,
      "Ę": 234,
      "ę": 235,
      "Ě": 236,
      "ě": 237,
      "Ĝ": 238,
      "ĝ": 239,
      "Ğ": 240,
      "ğ": 241,
      "Ġ": 242,
      "ġ": 243,
      "Ģ": 244,
      "ģ": 245,
      "Ĥ": 246,
      "ĥ": 247,
      "Ħ": 248,
      "ħ": 249,
      "Ĩ": 250,
      "ĩ": 251,
      "Ī": 252,
      "ī": 253,
      "Ĭ": 254,
      "ĭ": 255,
      "Į": 256,
      "į": 257,
      "İ": 258,
      "ı": 259,
      "Ĳ": 260,
      "ĳ": 261,
      "Ĵ": 262,
      "ĵ": 263,
      "Ķ": 264,
      "ķ": 265,
      "ĸ": 266,
      "Ĺ": 267,
      "ĺ": 268,
      "Ļ": 269,
      "ļ": 270,
      "Ľ": 271,
      "ľ": 272,
      "Ŀ": 273,
      "ŀ": 274,
      "Ł": 275,
      "ł": 276,
      "Ń": 277,
      "ï¼": 278,
      "ä¸": 279,
      "çļ": 280,
      "çļĦ": 281,
      "ï¼Į": 282,
      "ãĢ": 283,
      "äº": 284,
      "ä»": 285,
      "ãĢĤ": 286,
      "æľ": 287,
      "åı": 288,
      "è¿": 289,
      "æĪ": 290,
      "ä½": 291,
      "åħ": 292,
      "åĴ": 293,
      "å®": 294,
      "æĺ": 295,
      "å¤": 296,
      "åĴĮ": 297,
      "æĸ": 298,
      "åľ": 299,
      "ä¸Ģ": 300,
      "åĬ": 301,
      "åĪ": 302,
      "çĶ": 303,
      "è¯": 304,
      "ä¹": 305,
      "åĲ": 306,
      "ç»": 307,
      "æĺ¯": 308,
      "æĪĳ": 309,
      "è®": 310,
      "å°": 311,
      "ï¼ļ": 312,
      "äºº": 313,
      "åľ¨": 314,
      "åŃ": 315,
      "ä»¥": 316,
      "ä»¬": 317,
      "ĥ½": 318,
      "äºĨ": 319,
      "æľī": 320,
      "å¯": 321,
      "è¿Ļ": 322,
      "å·": 323,
      "æĿ": 324,
      "å¹": 325,
      "è¦": 326,
      "æĹ": 327,
      "ä¼": 328,
      "ä¸ª": 329,
      "å¸": 330,
      "è¦ģ": 331,
      "åº": 332,
      "åĽ": 333,
      "éĩ": 334,
      "åĨ": 335,
      "èĥ½": 336,
      "åı¯": 337,
      "è§": 338,
      "ä¸į": 339,
      "å¾": 340,
      "éĢ": 341,
      "é¢": 342,
      "éĹ": 343,
      "ãĢģ": 344,
      "å¥": 345,
      "çļĦæ": 346,
      "èĢ": 347,
      "å¼": 348,
      "çĶŁ": 349,
      "çİ": 350,
      "åĮ": 351,
      "æĸĩ": 352,
      "ä¸º": 353,
      "èĩ": 354,
      "ç§": 355,
      "ä¸Ń": 356,
      "è¡": 357,
      "æĢ": 358,
      "ä¿": 359,
      "åĩ": 360,
      "å¯¹": 361,
      "æĬ": 362,
      "æĿ¥": 363,
      "æķ": 364,
      "æī": 365,
      "çŃ": 366,
      "æŃ": 367,
      "åŃ¦": 368,
      "éĿ": 369,
      "æĪĳä»¬": 370,
      "ä½ł": 371,
      "Ľ´": 372,
      "çĶ¨": 373,
      "å¿": 374,
      "æı": 375,
      "èĩª": 376,
      "æł": 377,
      "åı¯ä»¥": 378,
      "æĹ¶": 379,
      "çī": 380,
      "ä»ĸ": 381,
      "æĦ": 382,
      "æ³": 383,
      "å½": 384,
      "çĲ": 385,
      "å¦": 386,
      "æĪĲ": 387,
      "åĵ": 388,
      "é¢ĺ": 389,
      "å¥½": 390,
      "æĥ": 391,
      "åĪ°": 392,
      "åį": 393,
      "ä¼ļ": 394,
      "å¦Ĥ": 395,
      "çĽ": 396,
      "æĽ´": 397,
      "æĸ¹": 398,
      "å¤ļ": 399,
      "ä½ľ": 400,
      "äºĽ": 401,
      "äºİ": 402,
      "è´": 403,
      "æŀ": 404,
      "ä¸Ĭ": 405,
      "æİ": 406,
      "åİ": 407,
      "åľ°": 408,
      "æľ¬": 409,
      "éĹ®": 410,
      "éľ": 411,
      "æĮ": 412,
      "å¹¶": 413,
      "åıĳ": 414,
      "åĳ": 415,
      "å·¥": 416,
      "åĬĽ": 417,
      "æıĲ": 418,
      "èµ": 419,
      "æĭ": 420,
      "ï¼Ł": 421,
      "è¡Į": 422,
      "å¤§": 423,
      "éĩį": 424,
      "ç«": 425,
      "å°ı": 426,
      "ä¸ĭ": 427,
      "éľĢ": 428,
      "è¿ĩ": 429,
      "åģ": 430,
      "æĶ": 431,
      "ä¾": 432,
      "ä¸Ģä¸ª": 433,
      "ä¹Ł": 434,
      "å±": 435,
      "çİ°": 436,
      "æ´": 437,
      "åŁ": 438,
      "åĩº": 439,
      "æľĢ": 440,
      "çĲĨ": 441,
      "éĹ®é¢ĺ": 442,
      "æĻ": 443,
      "è¶": 444,
      "åĨħ": 445,
      "çļĦç": 446,
      "éĿ¢": 447,
      "åĬ¨": 448,
      "ä¸ļ": 449,
      "æ¯": 450,
      "ä¿Ŀ": 451,
      "é«": 452,
      "æĸ°": 453,
      "åħ³": 454,
      "æį": 455,
      "é«ĺ": 456,
      "ç»ı": 457,
      "åºĶ": 458,
      "çŃī": 459,
      "æ°": 460,
      "ç§į": 461,
      "æĬĢ": 462,
      "éľĢè¦ģ": 463,
      "çľ": 464,
      "åĮĸ": 465,
      "ä½ĵ": 466,
      "âĢ": 467,
      "æµ": 468,
      "æ®": 469,
      "åĪĨ": 470,
      "è¿Ľ": 471,
      "å®¹": 472,
      "åħ¶": 473,
      "æĤ": 474,
      "éĻ": 475,
      "èī": 476,
      "å®¶": 477,
      "æĢ§": 478,
      "å¾Ĺ": 479,
      "åĲĮ": 480,
      "æ¬": 481,
      "è§£": 482,
      "æ²": 483,
      "å¾Ī": 484,
      "æ®µ": 485,
      "æĺİ": 486,
      "åĬł": 487,
      "ä¹ł": 488,
      "éģ": 489,
      "é£": 490,
      "çĦ": 491,
      "è¾": 492,
      "éĹ´": 493,
      "å¸¸": 494,
      "æ±": 495,
      "æ³ķ": 496,
      "ä½Ĩ": 497,
      "çī©": 498,
      "éĢļ": 499,
      "èĢĮ": 500,
      "å·±": 501,
      "èĩªå·±": 502,
      "æĸĩæľ¬": 503,
      "çº": 504,
      "ç®": 505,
      "å®ļ": 506,
      "ä¸»": 507,
      "åĽł": 508,
      "è°": 509,
      "æ´»": 510,
      "æĦŁ": 511,
      "æ¸": 512,
      "æį®": 513,
      "ä¹ĭ": 514,
      "åĨħå®¹": 515,
      "çĦ¶": 516,
      "å¿ĥ": 517,
      "æľº": 518,
      "çĿ": 519,
      "ç±": 520,
      "éĺ": 521,
      "åĵģ": 522,
      "åħ¬": 523,
      "ä¹Ī": 524,
      "è½": 525,
      "ä¿¡": 526,
      "ç¤": 527,
      "çĤ": 528,
      "å®ŀ": 529,
      "æľ¯": 530,
      "éĶ": 531,
      "ä½¿": 532,
      "å¹´": 533,
      "æŃ¤": 534,
      "å½±": 535,
      "å¢": 536,
      "åŃĲ": 537,
      "è¿ĺ": 538,
      "èĢħ": 539,
      "æĮģ": 540,
      "å®ĥ": 541,
      "æģ": 542,
      "å±ķ": 543,
      "å°Ĩ": 544,
      "æĥħ": 545,
      "æĦı": 546,
      "ç¨": 547,
      "åº¦": 548,
      "æĤ¨": 549,
      "éļ": 550,
      "åĬ©": 551,
      "çĿĢ": 552,
      "çŁ": 553,
      "èģ": 554,
      "å»": 555,
      "ç±»": 556,
      "ä¸İ": 557,
      "éĥ½": 558,
      "è¿Ļä¸ª": 559,
      "åŃ¦ä¹ł": 560,
      "ä»ĸä»¬": 561,
      "åĲİ": 562,
      "ç³": 563,
      "çĸ": 564,
      "ç¡": 565,
      "ç«ł": 566,
      "ç»Ļ": 567,
      "è¯¥": 568,
      "äºĭ": 569,
      "æĸĩç«ł": 570,
      "åī": 571,
      "æķ°": 572,
      "èĤ": 573,
      "åĢ": 574,
      "è¯Ŀ": 575,
      "é¡": 576,
      "çĤ¹": 577,
      "éĩįè¦ģ": 578,
      "å¼Ģ": 579,
      "å»º": 580,
      "åħ¨": 581,
      "ç©": 582,
      "åĲĪ": 583,
      "ä¸ĢäºĽ": 584,
      "å¼ı": 585,
      "åģ¥": 586,
      "è¡¨": 587,
      "è¯´": 588,
      "éĩı": 589,
      "äº§": 590,
      "ä½ķ": 591,
      "å¤ĸ": 592,
      "ç¨ĭ": 593,
      "åıĺ": 594,
      "åĽ½": 595,
      "æĻº": 596,
      "çŃĶ": 597,
      "éĤ": 598,
      "äº¤": 599,
      "å·¥ä½ľ": 600,
      "æŀľ": 601,
      "è®¡": 602,
      "æĥ³": 603,
      "çĶµ": 604,
      "æĪĸ": 605,
      "çĽ®": 606,
      "å¸®": 607,
      "ç´": 608,
      "çĶŁæ´»": 609,
      "åĸ": 610,
      "èº": 611,
      "åĬ¡": 612,
      "åĽŀ": 613,
      "è¯Ń": 614,
      "èī²": 615,
      "å¸Ĥ": 616,
      "èº«": 617,
      "ç¡®": 618,
      "åı¸": 619,
      "ç³»": 620,
      "ç½": 621,
      "éª": 622,
      "è®©": 623,
      "çķ": 624,
      "æģ¯": 625,
      "æĬĢæľ¯": 626,
      "çİ¯": 627,
      "é£Ł": 628,
      "æŃ£": 629,
      "éķ": 630,
      "å¤©": 631,
      "ä»Ģ": 632,
      "çľĭ": 633,
      "åľº": 634,
      "æĻºèĥ½": 635,
      "èĲ": 636,
      "ä»Ģä¹Ī": 637,
      "åħ¬åı¸": 638,
      "åķ": 639,
      "éĿŀ": 640,
      "èĬ": 641,
      "æīĢ": 642,
      "åĲį": 643,
      "åº·": 644,
      "ä¾Ľ": 645,
      "ç¾": 646,
      "æĺ¯ä¸Ģ": 647,
      "çĲĥ": 648,
      "åĵį": 649,
      "çĽ¸": 650,
      "ç§ĳ": 651,
      "æ±Ĥ": 652,
      "å½ĵ": 653,
      "åħ¥": 654,
      "åĪ¶": 655,
      "åģ¥åº·": 656,
      "æ³¨": 657,
      "è¿ĻäºĽ": 658,
      "å°±": 659,
      "æĹ¶éĹ´": 660,
      "çł": 661,
      "åıĳå±ķ": 662,
      "ç¤¾": 663,
      "å¸®åĬ©": 664,
      "çĹ": 665,
      "è·": 666,
      "åĮ»": 667,
      "å½±åĵį": 668,
      "åıĹ": 669,
      "èµ·": 670,
      "ä½¿çĶ¨": 671,
      "ä»İ": 672,
      "æıĲä¾Ľ": 673,
      "æ·": 674,
      "éķ¿": 675,
      "æ¯Ķ": 676,
      "éĢļè¿ĩ": 677,
      "åıĬ": 678,
      "èĻ": 679,
      "åı¯èĥ½": 680,
      "é¢Ĩ": 681,
      "ä½į": 682,
      "å§": 683,
      "ç¼": 684,
      "è®¤": 685,
      "çī¹": 686,
      "è¢": 687,
      "æł¹": 688,
      "å¦Ĥä½ķ": 689,
      "ä»£": 690,
      "åİ»": 691,
      "åĨ³": 692,
      "éĿŀå¸¸": 693,
      "åīį": 694,
      "ç»ĵ": 695,
      "éĩĮ": 696,
      "åĮħ": 697,
      "âĢľ": 698,
      "çŁ¥": 699,
      "ä¿¡æģ¯": 700,
      "é¦": 701,
      "âĢĿ": 702,
      "æķĪ": 703,
      "æŁ": 704,
      "æ¡": 705,
      "å¤Ł": 706,
      "åĨĻ": 707,
      "åıĸ": 708,
      "éĥ": 709,
      "æıĲé«ĺ": 710,
      "éĤ£": 711,
      "éģĵ": 712,
      "äººä»¬": 713,
      "åŁº": 714,
      "æ°Ķ": 715,
      "è¿Ľè¡Į": 716,
      "ä»»": 717,
      "æ²¡": 718,
      "æł¹æį®": 719,
      "å¯¹è¯Ŀ": 720,
      "åħ·": 721,
      "å¥½çļĦ": 722,
      "åĪĽ": 723,
      "è¶Ĭ": 724,
      "æł·": 725,
      "ç¾İ": 726,
      "æ¶": 727,
      "è¯·": 728,
      "è¯Ĩ": 729,
      "æ¬¡": 730,
      "æĸ¹å¼ı": 731,
      "éªĮ": 732,
      "å¯¼": 733,
      "æĸĩæľ¬åĨħå®¹": 734,
      "å¤Ħ": 735,
      "è¿°": 736,
      "å°ĳ": 737,
      "å¢ĥ": 738,
      "åģļ": 739,
      "åĪ©": 740,
      "è¢«": 741,
      "åĳĺ": 742,
      "åĿ": 743,
      "å·²": 744,
      "æłĩ": 745,
      "èĩªå·±çļĦ": 746,
      "éĢĤ": 747,
      "è´¨": 748,
      "è®º": 749,
      "éĥ¨": 750,
      "å¹³": 751,
      "å¼º": 752,
      "å®¢": 753,
      "äººå·¥": 754,
      "ä»¶": 755,
      "è®®": 756,
      "åŀ": 757,
      "ä»¥ä¸ĭ": 758,
      "è§Ĥ": 759,
      "æĪ·": 760,
      "åĬŁ": 761,
      "å°ıæĺİ": 762,
      "æľŁ": 763,
      "çĥ": 764,
      "æ¯ı": 765,
      "åħĪ": 766,
      "æīĭ": 767,
      "ç¯": 768,
      "æ¸¸": 769,
      "ä¹Ĳ": 770,
      "éĢī": 771,
      "äººå·¥æĻºèĥ½": 772,
      "åŁŁ": 773,
      "èĢĥ": 774,
      "æĸŃ": 775,
      "çĪ": 776,
      "åĽŀçŃĶ": 777,
      "ç©¶": 778,
      "æĹł": 779,
      "åºĶè¯¥": 780,
      "æĹ¥": 781,
      "åĲĦ": 782,
      "æŀģ": 783,
      "èĥ½å¤Ł": 784,
      "æ·±": 785,
      "ç¬": 786,
      "æľį": 787,
      "æ¡Ī": 788,
      "çĭ": 789,
      "å®ī": 790,
      "é¥": 791,
      "æ°´": 792,
      "çİ¯å¢ĥ": 793,
      "ä½Ĩæĺ¯": 794,
      "åĻ": 795,
      "ç»Ł": 796,
      "ä¸¤": 797,
      "èµĦ": 798,
      "å¸¦": 799,
      "æº": 800,
      "Ķç©¶": 801,
      "ç¯ĩ": 802,
      "æķĻ": 803,
      "è¯ķ": 804,
      "æĭ¬": 805,
      "é¢ĨåŁŁ": 806,
      "ä¾ĭ": 807,
      "è¿ĳ": 808,
      "åĲĮæĹ¶": 809,
      "è¨": 810,
      "æĢ»": 811,
      "è¿Ļæ®µ": 812,
      "è®¾": 813,
      "æĪĳä»¬çļĦ": 814,
      "æŃ¥": 815,
      "æľª": 816,
      "æĶ¹": 817,
      "è¨Ģ": 818,
      "åĻ¨": 819,
      "éĽ": 820,
      "è®¸": 821,
      "æī¾": 822,
      "ç¥": 823,
      "ç½ĳ": 824,
      "ç®Ĺ": 825,
      "åºĶçĶ¨": 826,
      "èĥ": 827,
      "åĪ«": 828,
      "æĪĲä¸º": 829,
      "ç®¡": 830,
      "éĢł": 831,
      "æ¬¢": 832,
      "ä¿ĿæĮģ": 833,
      "èĬĤ": 834,
      "æĸ¹éĿ¢": 835,
      "åĮħæĭ¬": 836,
      "èĢģ": 837,
      "å¢ŀ": 838,
      "æ²¡æľī": 839,
      "æĶ¾": 840,
      "è°¢": 841,
      "æĬ¤": 842,
      "æµģ": 843,
      "æĪĺ": 844,
      "é¡¹": 845,
      "åĪĴ": 846,
      "åĩı": 847,
      "è§ī": 848,
      "åıª": 849,
      "çĹħ": 850,
      "è¯»": 851,
      "æĸ¹æ³ķ": 852,
      "ä¼ł": 853,
      "äººç±»": 854,
      "æıı": 855,
      "è§Ĵ": 856,
      "åķĨ": 857,
      "è¿Ĳ": 858,
      "å¸Ī": 859,
      "åŀĭ": 860,
      "ä»¥ä¸Ĭ": 861,
      "éŁ": 862,
      "ä¸ªäºº": 863,
      "æºĲ": 864,
      "èĩ´": 865,
      "åİĨ": 866,
      "å¥¹": 867,
      "é£İ": 868,
      "æ»": 869,
      "èĭ": 870,
      "èĦ": 871,
      "èİ": 872,
      "åŃĹ": 873,
      "çĸĹ": 874,
      "æĢĿ": 875,
      "æĽ´åĬł": 876,
      "å·²ç»ı": 877,
      "åĸľ": 878,
      "ä¸įåĲĮ": 879,
      "èĥ½åĬĽ": 880,
      "åĽłæŃ¤": 881,
      "æĸĩåĮĸ": 882,
      "å§ĭ": 883,
      "æĢģ": 884,
      "çģ": 885,
      "ä¸»é¢ĺ": 886,
      "åĲĹ": 887,
      "å¹¿": 888,
      "ä¸Ķ": 889,
      "åĽłä¸º": 890,
      "ä¸Ģæ®µ": 891,
      "ï¼ī": 892,
      "ĸçķ": 893,
      "æķ°æį®": 894,
      "å®Į": 895,
      "åĲ¬": 896,
      "è½»": 897,
      "èį": 898,
      "äºĨè§£": 899,
      "çļĦäºº": 900,
      "åĲĳ": 901,
      "æĹħ": 902,
      "éħ": 903,
      "åĢĻ": 904,
      "å¤ĩ": 905,
      "è°ĥ": 906,
      "ä¼ĺ": 907,
      "å¿«": 908,
      "ç«ĭ": 909,
      "ä¸ī": 910,
      "æİ¨": 911,
      "éŁ³": 912,
      "å¤ª": 913,
      "è®¸å¤ļ": 914,
      "å»ºè®®": 915,
      "åĪ°äºĨ": 916,
      "çľŁ": 917,
      "è¾¾": 918,
      "èģĮ": 919,
      "çłĶç©¶": 920,
      "æĪĲåĬŁ": 921,
      "ä»·": 922,
      "æĽ´å¤ļ": 923,
      "æŃ¤å¤ĸ": 924,
      "è±": 925,
      "å¼ķ": 926,
      "äº§åĵģ": 927,
      "èĲ½": 928,
      "å¦Ĥæŀľ": 929,
      "çĬ": 930,
      "æĭ©": 931,
      "ï¼Ī": 932,
      "ç´ł": 933,
      "ç§¯": 934,
      "å£": 935,
      "ç»Ĩ": 936,
      "éĢīæĭ©": 937,
      "ä½łçļĦ": 938,
      "ä¸įæĸŃ": 939,
      "è§Ĩ": 940,
      "è§£åĨ³": 941,
      "å¯Į": 942,
      "èº«ä½ĵ": 943,
      "æĽ´å¥½": 944,
      "å¼ł": 945,
      "è®¤ä¸º": 946,
      "æĿİ": 947,
      "éļ¾": 948,
      "å¸Ĥåľº": 949,
      "éĺŁ": 950,
      "æııè¿°": 951,
      "æľªæĿ¥": 952,
      "æ¼": 953,
      "ä»¥åıĬ": 954,
      "æ¨": 955,
      "çĶ±": 956,
      "çļĦæķ": 957,
      "éļı": 958,
      "çĻ": 959,
      "èĩªçĦ¶": 960,
      "èĤ²": 961,
      "ç²": 962,
      "ä¸ŃçļĦ": 963,
      "è¯Ńè¨Ģ": 964,
      "ä¸ĵ": 965,
      "é¦ĸ": 966,
      "ç»Ń": 967,
      "èĮ": 968,
      "ä¸»è¦ģ": 969,
      "èģĶ": 970,
      "è½¦": 971,
      "ä¾ĭå¦Ĥ": 972,
      "æİ¥": 973,
      "åħ´": 974,
      "æİ¢": 975,
      "éĶĢ": 976,
      "åĮ»çĶŁ": 977,
      "èĻĳ": 978,
      "åĸľæ¬¢": 979,
      "åŁİ": 980,
      "æĻ¯": 981,
      "æĺ¯ä¸Ģä¸ª": 982,
      "åħ¶ä»ĸ": 983,
      "ä¹ĭä¸Ģ": 984,
      "åĨµ": 985,
      "æ¨¡": 986,
      "ç»ĥ": 987,
      "éĩĩ": 988,
      "åĮº": 989,
      "ä¹ĭéĹ´": 990,
      "çĪ±": 991,
      "çĽ´": 992,
      "çİĩ": 993,
      "å¿ħ": 994,
      "ç¤º": 995,
      "é©": 996,
      "åŁºäºİ": 997,
      "ä¿ĿæĬ¤": 998,
      "éĴ": 999,
      "æł¼": 1000,
      "è¶³": 1001,
      "å¸¦æĿ¥": 1002,
      "åĩĨ": 1003,
      "æľĽ": 1004,
      "åı¥": 1005,
      "é¢Ħ": 1006,
      "ç¤¾ä¼ļ": 1007,
      "çĶŁæĪĲ": 1008,
      "èĪ": 1009,
      "åİŁ": 1010,
      "åħ¨çĲĥ": 1011,
      "è®¡åĪĴ": 1012,
      "å¯¹äºİ": 1013,
      "å¼Ģå§ĭ": 1014,
      "è§Ħ": 1015,
      "è¶£": 1016,
      "æĶ¯": 1017,
      "åıĤ": 1018,
      "åıĳçİ°": 1019,
      "ä»ħ": 1020,
      "é¥®": 1021,
      "åıĭ": 1022,
      "å®ĥä»¬": 1023,
      "æĽ´å¥½åľ°": 1024,
      "åŃ¦çĶŁ": 1025,
      "ç§ĳæĬĢ": 1026,
      "å¾Īå¤ļ": 1027,
      "æľĢè¿ĳ": 1028,
      "äºĴ": 1029,
      "ä¹¦": 1030,
      "åĽ¢": 1031,
      "çĽ®æłĩ": 1032,
      "éĩįè¦ģçļĦ": 1033,
      "ç¦": 1034,
      "çĶµå½±": 1035,
      "åŃĺ": 1036,
      "çļĦæĥ": 1037,
      "ç¥ŀ": 1038,
      "ç»Ħ": 1039,
      "è§Ĵèī²": 1040,
      "æīį": 1041,
      "åįķ": 1042,
      "åĩł": 1043,
      "åİĭ": 1044,
      "å¤ĦçĲĨ": 1045,
      "æµ·": 1046,
      "ç»ıéªĮ": 1047,
      "åĩıå°ĳ": 1048,
      "åħĭ": 1049,
      "åħį": 1050,
      "ç§¯æŀģ": 1051,
      "éĶ®": 1052,
      "éĻ©": 1053,
      "æĳ": 1054,
      "ĳæĪĺ": 1055,
      "åĢ¼": 1056,
      "èĲ¥": 1057,
      "ç¬¬": 1058,
      "ç»´": 1059,
      "åĶ": 1060,
      "åıĺåĮĸ": 1061,
      "æĮĩ": 1062,
      "ä¸ĸçķ": 1063,
      "åħ³éĶ®": 1064,
      "ä¸ĸçķĮ": 1065,
      "é»": 1066,
      "çļĦæĬ": 1067,
      "ä¾¿": 1068,
      "è¿Ļç§į": 1069,
      "è§ģ": 1070,
      "èİ·": 1071,
      "æľºåĻ¨": 1072,
      "æľĢåĲİ": 1073,
      "å¤į": 1074,
      "æ´»åĬ¨": 1075,
      "ï¼ģ": 1076,
      "çĮ": 1077,
      "åıį": 1078,
      "ä¸ŃåĽ½": 1079,
      "è¯ģ": 1080,
      "éĶĻ": 1081,
      "å°½": 1082,
      "å®īåħ¨": 1083,
      "å¯¹è¯ĿåĨħå®¹": 1084,
      "èĩ³": 1085,
      "ä¸½": 1086,
      "æĸĻ": 1087,
      "æľįåĬ¡": 1088,
      "éĢŁ": 1089,
      "è±¡": 1090,
      "è´¹": 1091,
      "æĺŁ": 1092,
      "æĸ½": 1093,
      "å²": 1094,
      "å¥³": 1095,
      "ä¸°": 1096,
      "å½¢": 1097,
      "æ»¡": 1098,
      "é¦ĸåħĪ": 1099,
      "ä¹ī": 1100,
      "ç¼ĸ": 1101,
      "çļĦå½±åĵį": 1102,
      "åĳĬ": 1103,
      "åħ»": 1104,
      "å¤±": 1105,
      "éĩĳ": 1106,
      "çĲĨè§£": 1107,
      "åĲĦç§į": 1108,
      "ä¸Ģç§į": 1109,
      "å¯¼èĩ´": 1110,
      "åı²": 1111,
      "åĵª": 1112,
      "é¤": 1113,
      "æ£": 1114,
      "æ¸ħ": 1115,
      "ç¤¾äº¤": 1116,
      "ä¸°å¯Į": 1117,
      "å®¢æĪ·": 1118,
      "åħħ": 1119,
      "é¤Ĳ": 1120,
      "åŁİå¸Ĥ": 1121,
      "è¯Ħ": 1122,
      "åĪĻ": 1123,
      "å®ŀçİ°": 1124,
      "æŀĲ": 1125,
      "äº«": 1126,
      "æķ´": 1127,
      "è¿ĲåĬ¨": 1128,
      "è®¨": 1129,
      "åħ±": 1130,
      "çĬ¶": 1131,
      "èı": 1132,
      "ä»»åĬ¡": 1133,
      "åħ³æ³¨": 1134,
      "è®°": 1135,
      "åĽ´": 1136,
      "æİĴ": 1137,
      "ä¼ģ": 1138,
      "åĪĨæŀĲ": 1139,
      "åĲ¦": 1140,
      "èī¯": 1141,
      "æĺĵ": 1142,
      "ç³»ç»Ł": 1143,
      "å¨": 1144,
      "è¯į": 1145,
      "åı£": 1146,
      "æĪı": 1147,
      "æĸĩæľ¬åĨħå®¹åĽŀçŃĶ": 1148,
      "çļĦéĹ®é¢ĺ": 1149,
      "ç®¡çĲĨ": 1150,
      "å¯»": 1151,
      "è¦ģæ±Ĥ": 1152,
      "20": 1153,
      "åĸĦ": 1154,
      "æļ": 1155,
      "åŃ©": 1156,
      "æŁ¥": 1157,
      "æĿ¥è¶Ĭ": 1158,
      "ç®Ģ": 1159,
      "ä»¥ä¸Ĭè¿Ļæ®µ": 1160,
      "ç§ĳåŃ¦": 1161,
      "è¶ĬæĿ¥è¶Ĭ": 1162,
      "éĩįæĸ°": 1163,
      "éĻħ": 1164,
      "ä¼ģä¸ļ": 1165,
      "æŃ£åľ¨": 1166,
      "æµĭ": 1167,
      "è®¡ç®Ĺ": 1168,
      "æīĵ": 1169,
      "åĽ¢éĺŁ": 1170,
      "çŃĶæ¡Ī": 1171,
      "ä¸¤ä¸ª": 1172,
      "æķĻèĤ²": 1173,
      "è®Ń": 1174,
      "ï¼Ľ": 1175,
      "çĭ¬": 1176,
      "ç´¢": 1177,
      "ç©º": 1178,
      "æ²»": 1179,
      "æ¶Ī": 1180,
      "åħ³ç³»": 1181,
      "ç²¾": 1182,
      "ä»ĭ": 1183,
      "åįĩ": 1184,
      "çº¿": 1185,
      "çº¢": 1186,
      "ä¸Ģç¯ĩ": 1187,
      "å°Ŀ": 1188,
      "åĬ¿": 1189,
      "åı¯ä»¥å¸®åĬ©": 1190,
      "ä¸Ģä½į": 1191,
      "çĥŃ": 1192,
      "æĪĳçļĦ": 1193,
      "æ³¨æĦı": 1194,
      "åĳ¢": 1195,
      "åĨį": 1196,
      "çŁ¥éģĵ": 1197,
      "æħ": 1198,
      "è¾ĥ": 1199,
      "ä»Ĭ": 1200,
      "ä¸įæĺ¯": 1201,
      "åĲ¸": 1202,
      "æ¼Ķ": 1203,
      "éģ¿": 1204,
      "æĸ°çļĦ": 1205,
      "éļıçĿĢ": 1206,
      "ä¹ĭéĹ´çļĦ": 1207,
      "ä½İ": 1208,
      "èĢĥèĻĳ": 1209,
      "é¥®é£Ł": 1210,
      "çļĦéĩįè¦ģ": 1211,
      "ħäºĭ": 1212,
      "è·¯": 1213,
      "éĺħ": 1214,
      "ãĢĬ": 1215,
      "ãĢĭ": 1216,
      "è¶ħ": 1217,
      "ä¸įä»ħ": 1218,
      "ä»ĸä»¬çļĦ": 1219,
      "çİ°åľ¨": 1220,
      "åħī": 1221,
      "è¿Ļä¸ªéĹ®é¢ĺ": 1222,
      "è¿Ļæł·": 1223,
      "æĮĳæĪĺ": 1224,
      "äººçļĦ": 1225,
      "åħ³äºİ": 1226,
      "çº¦": 1227,
      "éŁ³ä¹Ĳ": 1228,
      "æĪĳä»¬åı¯ä»¥": 1229,
      "è¿ĩç¨ĭ": 1230,
      "æ®µèĲ½": 1231,
      "åª": 1232,
      "æĺ¯ä¸Ģç§į": 1233,
      "æĶ¶": 1234,
      "è´Ń": 1235,
      "çļĦåıĳå±ķ": 1236,
      "æĢİ": 1237,
      "æĽ": 1238,
      "è´Ł": 1239,
      "æľīæķĪ": 1240,
      "å·§": 1241,
      "äºī": 1242,
      "éľĢæ±Ĥ": 1243,
      "åĳ½": 1244,
      "å»ºç«ĭ": 1245,
      "åŁºäºİä»¥ä¸Ĭè¿Ļæ®µ": 1246,
      "éĺħè¯»": 1247,
      "å¸Į": 1248,
      "ä¸įè¦ģ": 1249,
      "æĸ¯": 1250,
      "æľĪ": 1251,
      "ç»ľ": 1252,
      "åİĨåı²": 1253,
      "ç¡®ä¿Ŀ": 1254,
      "åĳ³": 1255,
      "åºı": 1256,
      "åİĭåĬĽ": 1257,
      "åªĴ": 1258,
      "ä¸Ģä¸ĭ": 1259,
      "çļĦæĢ": 1260,
      "æĪĳä»¬éľĢè¦ģ": 1261,
      "br": 1262,
      "å¹¶ä¸Ķ": 1263,
      "æİ§": 1264,
      "æĭ¥": 1265,
      "èīº": 1266,
      "æĤ£": 1267,
      "éĵ": 1268,
      "çĽĬ": 1269,
      "éģ¿åħį": 1270,
      "éĽĨ": 1271,
      "å¹´è½»": 1272,
      "ç»į": 1273,
      "èĭ±": 1274,
      "ä»ĭç»į": 1275,
      "çļĦæĥħ": 1276,
      "å¤´": 1277,
      "çļĦæĦ": 1278,
      "è´¨éĩı": 1279,
      "ç»Ī": 1280,
      "æ¿": 1281,
      "è¥": 1282,
      "æĤ¨çļĦ": 1283,
      "éĩĩåıĸ": 1284,
      "éĹ¨": 1285,
      "åªĴä½ĵ": 1286,
      "åĬª": 1287,
      "è¥¿": 1288,
      "æĦŁåĪ°": 1289,
      "åĬªåĬĽ": 1290,
      "äº§çĶŁ": 1291,
      "åĪĹ": 1292,
      "æ¸¸æĪı": 1293,
      "æ¸©": 1294,
      "åħ·æľī": 1295,
      "èİ·å¾Ĺ": 1296,
      "æŀĦ": 1297,
      "å¿ĥçĲĨ": 1298,
      "åĲĪä½ľ": 1299,
      "æĺ¯åĲ¦": 1300,
      "æľºä¼ļ": 1301,
      "èģĮä¸ļ": 1302,
      "åĶ®": 1303,
      "èĮĥ": 1304,
      "çİ¯ä¿Ŀ": 1305,
      "ç¢": 1306,
      "ĊĊ": 1307,
      "çĻ½": 1308,
      "åĮ»çĸĹ": 1309,
      "æľĭ": 1310,
      "å¸ĮæľĽ": 1311,
      "äºĨä¸Ģ": 1312,
      "å®ĮæĪĲ": 1313,
      "æ¿Ģ": 1314,
      "ªæĸ½": 1315,
      "å¢ŀåĬł": 1316,
      "çĽ¸åħ³": 1317,
      "è¯¦": 1318,
      "ä»·åĢ¼": 1319,
      "æĬ¥": 1320,
      "åĥ": 1321,
      "ç½ĳç»ľ": 1322,
      "æĶ¯æĮģ": 1323,
      "èĬ±": 1324,
      "å¤§çļĦ": 1325,
      "åĽ°": 1326,
      "æ³Ľ": 1327,
      "æľĭåıĭ": 1328,
      "åįİ": 1329,
      "èıľ": 1330,
      "æĶ¿": 1331,
      "ä¸ĢçĽ´": 1332,
      "ä¹Łæĺ¯": 1333,
      "å®ļçļĦ": 1334,
      "å¾Ģ": 1335,
      "çĶ¨æĪ·": 1336,
      "çİĭ": 1337,
      "ä»½": 1338,
      "æ°ĳ": 1339,
      "æĥ¯": 1340,
      "åħ¶ä¸Ń": 1341,
      "äºĮ": 1342,
      "è¯¦ç»Ĩ": 1343,
      "çĦ¶èĢĮ": 1344,
      "çŃĸ": 1345,
      "å®³": 1346,
      "Â·": 1347,
      "è£": 1348,
      "æĬĢèĥ½": 1349,
      "æĢ»ç»ĵ": 1350,
      "åĳ¨": 1351,
      "è§īå¾Ĺ": 1352,
      "å°Ŀè¯ķ": 1353,
      "èµ·æĿ¥": 1354,
      "çļĦæĬĢ": 1355,
      "ç¿": 1356,
      "èĳ": 1357,
      "ä¹łæĥ¯": 1358,
      "åħ´è¶£": 1359,
      "åı¯èĥ½ä¼ļ": 1360,
      "éģĩ": 1361,
      "æĿ¾": 1362,
      "ä¸ºäºĨ": 1363,
      "å¹¿æ³Ľ": 1364,
      "åĥı": 1365,
      "æĭ¥æľī": 1366,
      "åºŃ": 1367,
      "ä¼Ĺ": 1368,
      "è¿ľ": 1369,
      "ä¸ĵä¸ļ": 1370,
      "çŁŃ": 1371,
      "æĹħæ¸¸": 1372,
      "ä¹°": 1373,
      "åı¥åŃĲ": 1374,
      "éĥ¨åĪĨ": 1375,
      "åı¦": 1376,
      "è¡Įä¸ļ": 1377,
      "æ¯Ķå¦Ĥ": 1378,
      "åħ¶æ¬¡": 1379,
      "æĹ¶åĢĻ": 1380,
      "å¾ĭ": 1381,
      "èµĽ": 1382,
      "çŁ¥è¯Ĩ": 1383,
      "é¡¹çĽ®": 1384,
      "æĮģç»Ń": 1385,
      "æĽ´å¤ļçļĦ": 1386,
      "ç¼º": 1387,
      "åŃĺåľ¨": 1388,
      "åħĥ": 1389,
      "åĲ«": 1390,
      "çª": 1391,
      "è½¬": 1392,
      "åĪ©çĶ¨": 1393,
      "è®¡ç®Ĺæľº": 1394,
      "çİ°ä»£": 1395,
      "æĬĬ": 1396,
      "æ°ĶåĢĻ": 1397,
      "èµĦæºĲ": 1398,
      "å®¶åºŃ": 1399,
      "00": 1400,
      "åĲĥ": 1401,
      "ä»ĸçļĦ": 1402,
      "èĢģå¸Ī": 1403,
      "çħ": 1404,
      "åŃ©åŃĲ": 1405,
      "è®Ńç»ĥ": 1406,
      "ŁéĢļ": 1407,
      "äº¤æµģ": 1408,
      "éĻį": 1409,
      "çĶ·": 1410,
      "æĬķ": 1411,
      "ä½ĵéªĮ": 1412,
      "ä¸ĢåĲį": 1413,
      "æĥħåĨµ": 1414,
      "çīĩ": 1415,
      "å£«": 1416,
      "åįģ": 1417,
      "ä¼łç»Ł": 1418,
      "æµİ": 1419,
      "è¿ĺæĺ¯": 1420,
      "éĺ²": 1421,
      "è®¾è®¡": 1422,
      "è¡Įä¸º": 1423,
      "å¾ħ": 1424,
      "æīįèĥ½": 1425,
      "è¿½": 1426,
      "åĽ¾": 1427,
      "åĪĽéĢł": 1428,
      "è¿ĺæľī": 1429,
      "æķĪçİĩ": 1430,
      "æĢİä¹Ī": 1431,
      "è¡¨çİ°": 1432,
      "æİªæĸ½": 1433,
      "åĭ": 1434,
      "ç»ıæµİ": 1435,
      "æĴ": 1436,
      "ä¸Ģèµ·": 1437,
      "åĽĽ": 1438,
      "æķ°åŃĹ": 1439,
      "è¡¨è¾¾": 1440,
      "æĸ¹æ¡Ī": 1441,
      "çı": 1442,
      "å¸ĥ": 1443,
      "è®²": 1444,
      "æī¾åĪ°": 1445,
      "éħį": 1446,
      "æĪĸèĢħ": 1447,
      "å¡": 1448,
      "è¾ĵ": 1449,
      "åĪĨç±»": 1450,
      "ç»Ļä½ł": 1451,
      "çĶµåŃĲ": 1452,
      "çļĦä¸Ģ": 1453,
      "æĿ¡": 1454,
      "å°ıè¯´": 1455,
      "ç«ŀ": 1456,
      "åĿļ": 1457,
      "è¾ĳ": 1458,
      "éĻĲ": 1459,
      "åĪ¶å®ļ": 1460,
      "æĺ¾": 1461,
      "æ²»çĸĹ": 1462,
      "éĻ¤": 1463,
      "ä»İèĢĮ": 1464,
      "ä¸ºä»Ģä¹Ī": 1465,
      "é£İéĻ©": 1466,
      "ç¤¾äº¤åªĴä½ĵ": 1467,
      "ä¸¥": 1468,
      "ä½ľä¸º": 1469,
      "èĩªæĪĳ": 1470,
      "å¼Ģåıĳ": 1471,
      "åı°": 1472,
      "ä¸´": 1473,
      "æĪĳä¼ļ": 1474,
      "éĺ³": 1475,
      "éĶĢåĶ®": 1476,
      "å¯Ĩ": 1477,
      "å¯»æī¾": 1478,
      "åĵªäºĽ": 1479,
      "æİ¢ç´¢": 1480,
      "çīĮ": 1481,
      "æĲ": 1482,
      "ä½łå¥½": 1483,
      "æĤ£èĢħ": 1484,
      "è¯¯": 1485,
      "çİ©": 1486,
      "é¸": 1487,
      "ä¸ľ": 1488,
      "æĹħè¡Į": 1489,
      "æĿĲ": 1490,
      "èŀ": 1491,
      "åıĺå¾Ĺ": 1492,
      "æŁĵ": 1493,
      "è´£": 1494,
      "èĻ½": 1495,
      "çĹĩ": 1496,
      "çļĦçĶŁæ´»": 1497,
      "æĢ§åĴĮ": 1498,
      "æĬĢå·§": 1499,
      "éĥ½æĺ¯": 1500,
      "èīºæľ¯": 1501,
      "å¦Ĥä¸ĭ": 1502,
      "æĿ¥è¯´": 1503,
      "åħ¬åı¸çļĦ": 1504,
      "éĤ£ä¹Ī": 1505,
      "æĹ©": 1506,
      "ä¸Ģæ®µå¯¹è¯Ŀ": 1507,
      "èĻ½çĦ¶": 1508,
      "æ¨¡åŀĭ": 1509,
      "ä¸ĭéĿ¢": 1510,
      "èĮĥåĽ´": 1511,
      "Ġæııè¿°": 1512,
      "æ¤": 1513,
      "åķĬ": 1514,
      "ç¦»": 1515,
      "è§Ĵèī²ä¿¡æģ¯": 1516,
      "è¡¡": 1517,
      "é¡»": 1518,
      "è¿Ļæĺ¯": 1519,
      "å²ģ": 1520,
      "æľºåĻ¨åŃ¦ä¹ł": 1521,
      "èŀį": 1522,
      "ĺè¦ģ": 1523,
      "çĭĹ": 1524,
      "çº§": 1525,
      "äºĭæĥħ": 1526,
      "åĪ»": 1527,
      "æķħäºĭ": 1528,
      "æŁĲ": 1529,
      "åĬ©äºİ": 1530,
      "çĦ¶åĲİ": 1531,
      "è®¨è®º": 1532,
      "åĩºäºĨ": 1533,
      "åĪĽæĸ°": 1534,
      "æł¡": 1535,
      "æİ§åĪ¶": 1536,
      "åĽŃ": 1537,
      "é²": 1538,
      "åĽłç´ł": 1539,
      "æĭħ": 1540,
      "çĸ«": 1541,
      "¾çĹħ": 1542,
      "å¿ħé¡»": 1543,
      "åį³": 1544,
      "ä¸įåĲĮçļĦ": 1545,
      "éĹ»": 1546,
      "ä¼¼": 1547,
      "èµ°": 1548,
      "èį¯": 1549,
      "å¿µ": 1550,
      "æ¢": 1551,
      "å°ıçº¢": 1552,
      "åıĤåĬł": 1553,
      "èĦĳ": 1554,
      "æ¬¾": 1555,
      "åľ°çĲĥ": 1556,
      "é©¬": 1557,
      "å±±": 1558,
      "æĶ¹åıĺ": 1559,
      "çļĦæĺ¯": 1560,
      "åĳĺå·¥": 1561,
      "ç»ª": 1562,
      "æ°ĶåĢĻåıĺåĮĸ": 1563,
      "åķĨä¸ļ": 1564,
      "ç§°": 1565,
      "åĩºçİ°": 1566,
      "å°±æĺ¯": 1567,
      "èŃ": 1568,
      "çĨ": 1569,
      "æľīä»Ģä¹Ī": 1570,
      "å®¤": 1571,
      "åºĹ": 1572,
      "è§ĤçĤ¹": 1573,
      "åı¤": 1574,
      "èģĶç½ĳ": 1575,
      "å±ħ": 1576,
      "çļĦæİ": 1577,
      "åĬ¨çī©": 1578,
      "æľĢç»Ī": 1579,
      "çİĽ": 1580,
      "è°¢è°¢": 1581,
      "çĶŁæĢģ": 1582,
      "ä¿ĥ": 1583,
      "æīĢä»¥": 1584,
      "èĲ¥éĶĢ": 1585,
      "Jo": 1586,
      "çĶ»": 1587,
      "å°Ĭ": 1588,
      "çľł": 1589,
      "åĲ§": 1590,
      "æľīåĬ©äºİ": 1591,
      "ä¿®": 1592,
      "æīĢæľī": 1593,
      "æľīäºĽ": 1594,
      "åįı": 1595,
      "ä»»ä½ķ": 1596,
      "åĦ": 1597,
      "æĪ¿": 1598,
      "åºĶå¯¹": 1599,
      "åĨĻä½ľ": 1600,
      "èŃ¦": 1601,
      "çļĦæĶ": 1602,
      "è¿ĺåı¯ä»¥": 1603,
      "èĳĹ": 1604,
      "æĿ¿": 1605,
      "èģĶç³»": 1606,
      "çŃīçŃī": 1607,
      "åŁ¹": 1608,
      "hn": 1609,
      "ä½ľçĶ¨": 1610,
      "å°Ķ": 1611,
      "èĥĮ": 1612,
      "é£Łåĵģ": 1613,
      "John": 1614,
      "èĥ½æºĲ": 1615,
      "å¾·": 1616,
      "æĵ": 1617,
      "çĶŁäº§": 1618,
      "ç»ĵæŀľ": 1619,
      "å¥ĩ": 1620,
      "AI": 1621,
      "æ£Ģ": 1622,
      "å¯Ł": 1623,
      "çĸ¾çĹħ": 1624,
      "éĢĤåĲĪ": 1625,
      "åıĹåĪ°": 1626,
      "ä¸ĢæŃ¥": 1627,
      "åįĹ": 1628,
      "çļĦä¸»è¦ģ": 1629,
      "äº²": 1630,
      "èĢĮä¸Ķ": 1631,
      "ç§ģ": 1632,
      "æĦŁè°¢": 1633,
      "ç«ŀäºī": 1634,
      "çªģ": 1635,
      "å¹²": 1636,
      "è¯¾": 1637,
      "æĻ®": 1638,
      "çļĦåľ°": 1639,
      "æĺ¯çļĦ": 1640,
      "ç¦ı": 1641,
      "åıĳçĶŁ": 1642,
      "è¡ĮåĬ¨": 1643,
      "åħ·ä½ĵ": 1644,
      "åĦ¿": 1645,
      "å¢ŀå¼º": 1646,
      "æĢĿèĢĥ": 1647,
      "»çĤ": 1648,
      "è£ħ": 1649,
      "æĺ¯ä»Ģä¹Ī": 1650,
      "é»ĳ": 1651,
      "æĦŁè§ī": 1652,
      "åĬ±": 1653,
      "ä¸įåı¯": 1654,
      "äºĨä¸Ģä¸ª": 1655,
      "äº¤éĢļ": 1656,
      "¦Ĥ": 1657,
      "çĶŁåĳ½": 1658,
      "é¡¾": 1659,
      "æ¯Ķè¾ĥ": 1660,
      "ä½ı": 1661,
      "æį¢": 1662,
      "åİŁåĽł": 1663,
      "ç±³": 1664,
      "çİĽä¸½": 1665,
      "éĤ®": 1666,
      "ä¸ĬçļĦ": 1667,
      "æı¡": 1668,
      "æİĮ": 1669,
      "ç¯ĩæĸĩç«ł": 1670,
      "åī§": 1671,
      "é¼": 1672,
      "äºļ": 1673,
      "åĬŀ": 1674,
      "å¾ĹåĪ°": 1675,
      "çļĦçł": 1676,
      "åİħ": 1677,
      "è½¯": 1678,
      "å¤§éĩı": 1679,
      "åĲ¸å¼ķ": 1680,
      "å½ĵçĦ¶": 1681,
      "çļĦæķ°": 1682,
      "éļĲ": 1683,
      "åĵģçīĮ": 1684,
      "è¯ī": 1685,
      "æĿĤ": 1686,
      "è¿İ": 1687,
      "åŁºäºİä»¥ä¸Ĭè¿Ļæ®µæĸĩæľ¬": 1688,
      "çĶŁæ´»ä¸Ń": 1689,
      "ç¾İåĽ½": 1690,
      "è´ŁéĿ¢": 1691,
      "ä¸įèĥ½": 1692,
      "å·¥åħ·": 1693,
      "è¡Ģ": 1694,
      "éĢĲ": 1695,
      "æĦıè¯Ĩ": 1696,
      "åĩĨå¤ĩ": 1697,
      "åĪĩ": 1698,
      "æŃ£ç¡®": 1699,
      "èĤī": 1700,
      "æĬĢæľ¯çļĦ": 1701,
      "å£°": 1702,
      "çļĦå·¥ä½ľ": 1703,
      "æļĸ": 1704,
      "om": 1705,
      "èĩªçĦ¶è¯Ńè¨Ģ": 1706,
      "½ľ": 1707,
      "å®¹æĺĵ": 1708,
      "ãĢĤ\\": 1709,
      "åĬĽåĴĮ": 1710,
      "æĻļ": 1711,
      "çļĦæĸĩç«ł": 1712,
      "ç»ĩ": 1713,
      "äºĴèģĶç½ĳ": 1714,
      "æĹłæ³ķ": 1715,
      "éĶ»çĤ": 1716,
      "é£Łçī©": 1717,
      "éĶ»çĤ¼": 1718,
      "ç¼ĵ": 1719,
      "ç¨ĭåºı": 1720,
      "æĥħæĦŁ": 1721,
      "æĪĳæĥ³": 1722,
      "ç»ıåİĨ": 1723,
      "èī¯å¥½çļĦ": 1724,
      "è®¾å¤ĩ": 1725,
      "ç½®": 1726,
      "çħ§": 1727,
      "çļĦæ²": 1728,
      "ä»ĸä»¬ä¹ĭéĹ´çļĦ": 1729,
      "åĬŁèĥ½": 1730,
      "è¿ĩç¨ĭä¸Ń": 1731,
      "çļĦæĮ": 1732,
      "¡çľł": 1733,
      "ä¸Ģæ®µæĸĩæľ¬åĨħå®¹": 1734,
      "ç»Ļä¸Ģæ®µæĸĩæľ¬åĨħå®¹": 1735,
      "èĩªåĬ¨": 1736,
      "æīĭæľº": 1737,
      "æŀĹ": 1738,
      "ãĢĤâĢĿ": 1739,
      "èħ": 1740,
      "æĸ°éĹ»": 1741,
      "æ¯ıå¤©": 1742,
      "éĢłæĪĲ": 1743,
      "æĦ¿": 1744,
      "çĳ": 1745,
      "åŃ£": 1746,
      "éĢļå¸¸": 1747,
      "çģ«": 1748,
      "çļĦæĸ¹æ³ķ": 1749,
      "è·Ł": 1750,
      "æĳĺè¦ģ": 1751,
      "æ¯ıä¸ªäºº": 1752,
      "åĽ°éļ¾": 1753,
      "æ²ŁéĢļ": 1754,
      "è¾¹": 1755,
      "ä¸ĩ": 1756,
      "éĻ¢": 1757,
      "æıĲä¾ĽäºĨ": 1758,
      "éĤ®ä»¶": 1759,
      "åºľ": 1760,
      "ç´§": 1761,
      "æĭī": 1762,
      "ç»ıå¸¸": 1763,
      "ç»Ļä½łä¸¤ä¸ª": 1764,
      "çĶŁæĪĲä»ĸä»¬ä¹ĭéĹ´çļĦ": 1765,
      "å¯¹è¯ĿåĨħå®¹è¯¦ç»Ĩ": 1766,
      "è¦ģæ±Ĥå¯¹è¯ĿåĨħå®¹è¯¦ç»Ĩ": 1767,
      "è§Ĵèī²ä¿¡æģ¯å¦Ĥä¸ĭ": 1768,
      "ç»Ļä½łä¸¤ä¸ªè§Ĵèī²ä¿¡æģ¯å¦Ĥä¸ĭ": 1769,
      "çĶŁæĪĲä»ĸä»¬ä¹ĭéĹ´çļĦä¸Ģæ®µå¯¹è¯Ŀ": 1770,
      "è¦ģæ±Ĥå¯¹è¯ĿåĨħå®¹è¯¦ç»Ĩä¸°å¯Į": 1771,
      "å½ĵåľ°": 1772,
      "çļĦæĻ": 1773,
      "åĪĨäº«": 1774,
      "åĪļ": 1775,
      "åĴĸ": 1776,
      "æĽ´å¥½çļĦ": 1777,
      "éħĴ": 1778,
      "è´¢": 1779,
      "éĿ¢ä¸´": 1780,
      "çļĦçŁ": 1781,
      "æľīçĿĢ": 1782,
      "çļĦç¤": 1783,
      "å¨ģ": 1784,
      "ä¿Ŀè¯ģ": 1785,
      "å¹¸": 1786,
      "è¶ĭ": 1787,
      "çļĦæĦı": 1788,
      "è¡¨æĺİ": 1789,
      "é¤Ĳåİħ": 1790,
      "çĽĳ": 1791,
      "åķ¡": 1792,
      "¡æŁĵ": 1793,
      "ç»Ħç»ĩ": 1794,
      "çľĭåĪ°": 1795,
      "æĶ¹åĸĦ": 1796,
      "åĨ³çŃĸ": 1797,
      "ä¿ĥè¿Ľ": 1798,
      "å¹³è¡¡": 1799,
      "ä¹Łåı¯ä»¥": 1800,
      "ä¸Ģå®ļ": 1801,
      "ä½łåı¯ä»¥": 1802,
      "åı·": 1803,
      "åı¯æĮģç»Ń": 1804,
      "çĶŁçī©": 1805,
      "å§Ĩ": 1806,
      "çķĻ": 1807,
      "åĴĸåķ¡": 1808,
      "åĩĨç¡®": 1809,
      "çĶ±äºİ": 1810,
      "çī¹åĪ«": 1811,
      "çĶ¨äºİ": 1812,
      "æ¯ıä¸ª": 1813,
      "èĽ": 1814,
      "åıĪ": 1815,
      "çŃĸçķ": 1816,
      "ä»¤": 1817,
      "çŃĸçķ¥": 1818,
      "çł´": 1819,
      "æ¶¦": 1820,
      "ä»ĺ": 1821,
      "æĪĲéķ¿": 1822,
      "æĹ¥å¸¸": 1823,
      "çĸĳ": 1824,
      "çĮ«": 1825,
      "åĪĿ": 1826,
      "åĬłåħ¥": 1827,
      "å¸¦æĿ¥äºĨ": 1828,
      "éŃ": 1829,
      "åģĩ": 1830,
      "Tom": 1831,
      "éĿ¢å¯¹": 1832,
      "ç«Ļ": 1833,
      "åĬłå¼º": 1834,
      "åŁºç¡": 1835,
      "è¶ĭåĬ¿": 1836,
      "æĿĥ": 1837,
      "å¿«éĢŁ": 1838,
      "åŁºç¡Ģ": 1839,
      "å·¨": 1840,
      "åģļåĩº": 1841,
      "å®Ŀ": 1842,
      "çļĦæ°": 1843,
      "è¿ĽæŃ¥": 1844,
      "ç¡®å®ļ": 1845,
      "æİĮæı¡": 1846,
      "åħ±åĲĮ": 1847,
      "ä»į": 1848,
      "å·®": 1849,
      "éĶĻè¯¯": 1850,
      "æĶ¿åºľ": 1851,
      "å¼Ĥ": 1852,
      "èĻļ": 1853,
      "åıĸå¾Ĺ": 1854,
      "éĩĬ": 1855,
      "åĮĹ": 1856,
      "10": 1857,
      "ç®Ĺæ³ķ": 1858,
      "çłģ": 1859,
      "æ¸Ĳ": 1860,
      "æ¯ĶèµĽ": 1861,
      "è¿ĻéĩĮ": 1862,
      "ä½ľåĵģ": 1863,
      "æ±½": 1864,
      "åıªæľī": 1865,
      "è¿½æ±Ĥ": 1866,
      "çĽ¸ä¿¡": 1867,
      "åł": 1868,
      "é¦Ĩ": 1869,
      "çļĦéĩįè¦ģæĢ§": 1870,
      "æĪĳä»¬åºĶè¯¥": 1871,
      "æĥħç»ª": 1872,
      "æĶ¾æĿ¾": 1873,
      "å¤ªéĺ³": 1874,
      "æ·±åħ¥": 1875,
      "ç®Ģåįķ": 1876,
      "çļĦæł": 1877,
      "èĭ±è¯Ń": 1878,
      "è¿ŀ": 1879,
      "å¾®": 1880,
      "ä¸įéĶĻ": 1881,
      "è´Ńä¹°": 1882,
      "æĬķèµĦ": 1883,
      "åĹ": 1884,
      "å¿ħè¦ģ": 1885,
      "è¿Ļä¸Ģ": 1886,
      "çļĦæī": 1887,
      "è¯Ĭ": 1888,
      "çģµ": 1889,
      "çĦ¦": 1890,
      "ä¸ĸ": 1891,
      "æ·±åº¦": 1892,
      "æ³¨éĩį": 1893,
      "æ¤į": 1894,
      "åħħæ»¡": 1895,
      "ç»§": 1896,
      "æ±¡æŁĵ": 1897,
      "ï¼ļâĢľ": 1898,
      "äºĭä»¶": 1899,
      "ç§ĺ": 1900,
      "é¾": 1901,
      "ä½łéľĢè¦ģ": 1902,
      "æ°´å¹³": 1903,
      "ä½łä»¬": 1904,
      "çļĦç¾": 1905,
      "ä¸įä¼ļ": 1906,
      "æĪĲåĬŁçļĦ": 1907,
      "æĢ§çļĦ": 1908,
      "éĿĻ": 1909,
      "æłĩé¢ĺ": 1910,
      "ä¼ĳ": 1911,
      "åĨ³å®ļ": 1912,
      "æ¶Īè´¹": 1913,
      "éĢĤåºĶ": 1914,
      "å¤§åŃ¦": 1915,
      "äº«åıĹ": 1916,
      "è½¯ä»¶": 1917,
      "çĽ®åīį": 1918,
      "æĺ¯åľ¨": 1919,
      "èĩªçĦ¶è¯Ńè¨Ģå¤ĦçĲĨ": 1920,
      "æľ¬æĸĩ": 1921,
      "ç¾¤": 1922,
      "äººåĳĺ": 1923,
      "ç³ĸ": 1924,
      "æµª": 1925,
      "ä¸Ģæ¬¡": 1926,
      "åĳĬè¯ī": 1927,
      "±ä¹Ĳ": 1928,
      "æĭŁ": 1929,
      "æ¦Ĥ": 1930,
      "äºĶ": 1931,
      "è¿Ľä¸ĢæŃ¥": 1932,
      "æ±¤": 1933,
      "åŃ¦æł¡": 1934,
      "å¿Ĺ": 1935,
      "åĩ»": 1936,
      "æİ¢è®¨": 1937,
      "éĻįä½İ": 1938,
      "çļĦåºĶçĶ¨": 1939,
      "åľ¨è¿Ļä¸ª": 1940,
      "äº¬": 1941,
      "ç¼ĸè¾ĳ": 1942,
      "ç¤¼": 1943,
      "ĠæĪĳ": 1944,
      "å¼łä¸ī": 1945,
      "å·´": 1946,
      "æ±½è½¦": 1947,
      "åĨľ": 1948,
      "ä½ľèĢħ": 1949,
      "è®©æĪĳä»¬": 1950,
      "çļĦçłĶç©¶": 1951,
      "å®ŀéĻħ": 1952,
      "éĴ±": 1953,
      "æıĲåįĩ": 1954,
      "çļĦæĹ¶éĹ´": 1955,
      "XX": 1956,
      "åıĤä¸İ": 1957,
      "ä»Ĭå¤©": 1958,
      "æľīåħ³": 1959,
      "å±Ĥ": 1960,
      "çİ°å®ŀ": 1961,
      "è¿Ļç¯ĩæĸĩç«ł": 1962,
      "æ²¹": 1963,
      "è¯ĨåĪ«": 1964,
      "æħ¢": 1965,
      "åı¯ä»¥éĢļè¿ĩ": 1966,
      "åĮħåĲ«": 1967,
      "çĮ®": 1968,
      "åį¡": 1969,
      "æĸĩåŃ¦": 1970,
      "çŁ³": 1971,
      "é¢Ĩå¯¼": 1972,
      "çļĦç¾İ": 1973,
      "è¯»èĢħ": 1974,
      "åŁºäºİä»¥ä¸Ĭè¿Ļæ®µæĸĩæľ¬åĨħå®¹åĽŀçŃĶ": 1975,
      "çļĦç¤¾": 1976,
      "é¢ĳ": 1977,
      "éļĲç§ģ": 1978,
      "å½ķ": 1979,
      "ä¸ļåĬ¡": 1980,
      "åŃ¦ä¹łåĴĮ": 1981,
      "èĩªä¿¡": 1982,
      "åį´": 1983,
      "å¾Īé«ĺ": 1984,
      "è°Ī": 1985,
      "è¡¨ç¤º": 1986,
      "åģ¥èº«": 1987,
      "çģ¾": 1988,
      "ä¸¾": 1989,
      "ç»§ç»Ń": 1990,
      "è¶ĬæĿ¥è¶Ĭå¤ļ": 1991,
      "ç©¿": 1992,
      "é¼ĵ": 1993,
      "åĩłä¸ª": 1994,
      "è·ĳ": 1995,
      "çļĦæĥħåĨµ": 1996,
      "æľīè¶£": 1997,
      "ç»ĥä¹ł": 1998,
      "æĺİç¡®": 1999,
      "æ¬¢è¿İ": 2000,
      "çľŁæŃ£": 2001,
      "å¤įæĿĤ": 2002,
      "åįļ": 2003,
      "åı¦å¤ĸ": 2004,
      "ç§»": 2005,
      "æĶ¹è¿Ľ": 2006,
      "èįĲ": 2007,
      "è¾ĵåħ¥": 2008,
      "çºª": 2009,
      "é«ĺæķĪ": 2010,
      "çľ¼": 2011,
      "é£İæł¼": 2012,
      "èĩªçĶ±": 2013,
      "ç»Ļå®ļçļĦ": 2014,
      "çŃĳ": 2015,
      "æ£ĢæŁ¥": 2016,
      "åģ¥åº·çļĦ": 2017,
      "æĪĳè®¤ä¸º": 2018,
      "æĮī": 2019,
      "è§ĦåĪĴ": 2020,
      "ä¸¥éĩį": 2021,
      "åŃ¦ä¼ļ": 2022,
      "èĽĭ": 2023,
      "19": 2024,
      "æĹ¶ä»£": 2025,
      "çĭ¬çī¹": 2026,
      "çļĦæĬĢæľ¯": 2027,
      "åį±": 2028,
      "ç»Ļå®ļ": 2029,
      "å»ºçŃĳ": 2030,
      "æŃ¢": 2031,
      "èĪĴ": 2032,
      "ä½¿å¾Ĺ": 2033,
      "çļĦçľ": 2034,
      "é²ľ": 2035,
      "çĦ¦èĻĳ": 2036,
      "å¨±ä¹Ĳ": 2037,
      "å¾ģ": 2038,
      "è·µ": 2039,
      "åŁºæľ¬": 2040,
      "çļĦæ¸": 2041,
      "çļĦæĥ³": 2042,
      "æĿĲæĸĻ": 2043,
      "éĩİ": 2044,
      "ä¾Ŀ": 2045,
      "ä½³": 2046,
      "éĨ": 2047,
      "ä¼°": 2048,
      "æ´ĭ": 2049,
      "æ¯į": 2050,
      "æ»¡è¶³": 2051,
      "åĪ¤": 2052,
      "éĩĩçĶ¨": 2053,
      "å¼ºè°ĥ": 2054,
      "è´µ": 2055,
      "ä¼¤": 2056,
      "åĲĮæĹ¶ä¹Ł": 2057,
      "ç§Ģ": 2058,
      "å®ŀè·µ": 2059,
      "ç±»åŀĭ": 2060,
      "å¹³åı°": 2061,
      "è®¤è¯Ĩ": 2062,
      "çļĦä¿¡æģ¯": 2063,
      "ç»Ļåĩº": 2064,
      "åĿļæĮģ": 2065,
      "æıĲåıĸ": 2066,
      "çļĦæĹ¶åĢĻ": 2067,
      "ç»ıçĲĨ": 2068,
      "åĲ¬èµ·æĿ¥": 2069,
      "èĥĮæĻ¯": 2070,
      "åĳ¼": 2071,
      "ç¬¦": 2072,
      "ä¹ħ": 2073,
      "æłĳ": 2074,
      "è¿ĩåİ»": 2075,
      "çļĦæĢĿ": 2076,
      "åį«": 2077,
      "èĥľ": 2078,
      "ä¸įè¿ĩ": 2079,
      "çļĦæµ": 2080,
      "è°ĥæķ´": 2081,
      "æĦıä¹ī": 2082,
      "æł¹æį®ä»¥ä¸Ĭ": 2083,
      "ç§ĳåŃ¦å®¶": 2084,
      "ç¼ĸç¨ĭ": 2085,
      "äººå·¥æĻºèĥ½æĬĢæľ¯": 2086,
      "å¿ĥæĢģ": 2087,
      "å°½ç®¡": 2088,
      "æī©": 2089,
      "æĪĳä¹Ł": 2090,
      "ä»£è¡¨": 2091,
      "åĪ¶ä½ľ": 2092,
      "æī¿": 2093,
      "éĥ½æľī": 2094,
      "éĿĴ": 2095,
      "å¿Ļ": 2096,
      "æĢ»æĺ¯": 2097,
      "æİ¨èįĲ": 2098,
      "è§£åĨ³æĸ¹æ¡Ī": 2099,
      "å¹¶åľ¨": 2100,
      "éļľ": 2101,
      "æ½ľ": 2102,
      "ä¸Ģä»½": 2103,
      "ç»©": 2104,
      "æĹłè®º": 2105,
      "ä¸įçŁ¥éģĵ": 2106,
      "æĳĦ": 2107,
      "æ¥": 2108,
      "æ¶ī": 2109,
      "éĢĲæ¸Ĳ": 2110,
      "ä»¥ä¸ĭæĺ¯": 2111,
      "å¼ķèµ·": 2112,
      "åĲ¬è¯´": 2113,
      "¹ģ": 2114,
      "éĤ£äºĽ": 2115,
      "è´Ńçī©": 2116,
      "çļĦæĦŁ": 2117,
      "ç»ĨèĬĤ": 2118,
      "ç«¯": 2119,
      "æİ¥åıĹ": 2120,
      "éĴŁ": 2121,
      "æĥ³è¦ģ": 2122,
      "å¤§å®¶": 2123,
      "å±Ģ": 2124,
      "é£ŀ": 2125,
      "âĢĶ": 2126,
      "è¿Ļæ®µæĸĩæľ¬": 2127,
      "ä»¥ä¾¿": 2128,
      "åĲĪçĲĨ": 2129,
      "å¤ı": 2130,
      "åıĺæļĸ": 2131,
      "å©": 2132,
      "å±ķç¤º": 2133,
      "èĢģæĿ¿": 2134,
      "è¶ħåĩº": 2135,
      "æĸ¹åĲĳ": 2136,
      "è´£ä»»": 2137,
      "âĢĿï¼Į": 2138,
      "æ±¤å§Ĩ": 2139,
      "æĽ¾": 2140,
      "æŃĮ": 2141,
      "æĩ": 2142,
      "éĩĳèŀį": 2143,
      "å¾Īå¥½": 2144,
      "åħĭæľį": 2145,
      "é¼ĵåĬ±": 2146,
      "è®©æĪĳ": 2147,
      "ç½Ĺ": 2148,
      "éĢĶ": 2149,
      "çļĦæķħäºĭ": 2150,
      "ä¼ļè®®": 2151,
      "çĽĸ": 2152,
      "ç¨³": 2153,
      "æł¹æį®è¿Ļä¸ª": 2154,
      "ä¹ĭåīį": 2155,
      "è¿·": 2156,
      "é¦Ļ": 2157,
      "é±": 2158,
      "ç»¿": 2159,
      "åºķ": 2160,
      "åº§": 2161,
      "åĿı": 2162,
      "æ¶¦èī²": 2163,
      "ç¿°": 2164,
      "çĨŁ": 2165,
      "é±¼": 2166,
      "æĢĿç»´": 2167,
      "é¢Ħæµĭ": 2168,
      "çļĦæĸ¹å¼ı": 2169,
      "å¦Ĥæŀľä½ł": 2170,
      "ç¤¾åĮº": 2171,
      "å¥½å¤Ħ": 2172,
      "çķ¥": 2173,
      "èĶ": 2174,
      "ä¸įè¦ģè¶ħåĩº": 2175,
      "ä¸ľè¥¿": 2176,
      "èĳĹåĲį": 2177,
      "å¹¸ç¦ı": 2178,
      "å°¼": 2179,
      "å¢ŀéķ¿": 2180,
      "æĸĩæľ¬åĨħå®¹èĮĥåĽ´": 2181,
      "æĸĩæľ¬åĨħå®¹åĽŀçŃĶè¿Ļä¸ªéĹ®é¢ĺ": 2182,
      "çŃĶæ¡Īä¸įè¦ģè¶ħåĩº": 2183,
      "æł¹æį®ä»¥ä¸Ĭæĸĩæľ¬åĨħå®¹åĽŀçŃĶè¿Ļä¸ªéĹ®é¢ĺ": 2184,
      "çŃĶæ¡Īä¸įè¦ģè¶ħåĩºæĸĩæľ¬åĨħå®¹èĮĥåĽ´": 2185,
      "æķ£": 2186,
      "åĿĹ": 2187,
      "è°ĥæŁ¥": 2188,
      "æĸĩæľ¬åĨħå®¹åĽŀçŃĶéĹ®é¢ĺ": 2189,
      "æł¹æį®è¿Ļä¸ªæĸĩæľ¬åĨħå®¹åĽŀçŃĶéĹ®é¢ĺ": 2190,
      "å®īæİĴ": 2191,
      "åı«": 2192,
      "çº¦ç¿°": 2193,
      "ç»ĵæŀĦ": 2194,
      "å·¥ç¨ĭ": 2195,
      "èº«ä½ĵåģ¥åº·": 2196,
      "æİ¨åĬ¨": 2197,
      "Al": 2198,
      "åį°": 2199,
      "å¤ļç§į": 2200,
      "ç¾İé£Ł": 2201,
      "çĹħäºº": 2202,
      "è¯Ħè®º": 2203,
      "åĤ": 2204,
      "è¯¢": 2205,
      "ĥåľ": 2206,
      "èĩ³åħ³": 2207,
      "å¡ĳ": 2208,
      "äºĨä¸ĢäºĽ": 2209,
      "ä¼ĺç§Ģ": 2210,
      "åŁ¹åħ»": 2211,
      "ä¹İ": 2212,
      "åŀĥåľ": 2213,
      "åŀĥåľ¾": 2214,
      "çľŁçļĦ": 2215,
      "éĿł": 2216,
      "é¢Ŀ": 2217,
      "ç»Ŀ": 2218,
      "çļĦäºĭæĥħ": 2219,
      "æĪĲä¸ºäºĨ": 2220,
      "æĹı": 2221,
      "å¹¶ä¸į": 2222,
      "æ¯Ĵ": 2223,
      "æ¸ħæĻ": 2224,
      "ç¹ģ": 2225,
      "ç¼ĵè§£": 2226,
      "åı¯ä»¥åľ¨": 2227,
      "çļĦæĥ³æ³ķ": 2228,
      "æĪĳæĺ¯": 2229,
      "è¶³å¤Ł": 2230,
      "ce": 2231,
      "æķ´ä¸ª": 2232,
      "æľĢéĩįè¦ģçļĦ": 2233,
      "åº¦åĴĮ": 2234,
      "çłĶ": 2235,
      "å°¤": 2236,
      "ä¸Ńå¿ĥ": 2237,
      "çŃīæĸ¹éĿ¢": 2238,
      "éĺ¿": 2239,
      "çĻ¾": 2240,
      "è§£éĩĬ": 2241,
      "çĹĽ": 2242,
      "è´ŁéĿ¢å½±åĵį": 2243,
      "è´¡": 2244,
      "å¤ľ": 2245,
      "ä¼ĺåĬ¿": 2246,
      "æ¹": 2247,
      "æĪĳåľ¨": 2248,
      "èĴ": 2249,
      "ä»·æł¼": 2250,
      "çķĮ": 2251,
      "åħĪçĶŁ": 2252,
      "åħ¸": 2253,
      "éĢĤå½ĵ": 2254,
      "é¡¾å®¢": 2255,
      "å¤©æ°Ķ": 2256,
      "æĴŃ": 2257,
      "è´¡çĮ®": 2258,
      "éķ¿æľŁ": 2259,
      "ä¹ı": 2260,
      "æĹ¶éĹ´åĴĮ": 2261,
      "æł¹æį®ä»¥ä¸ĭ": 2262,
      "ç¬¬äºĮ": 2263,
      "éĩįæĸ°æ¶¦èī²": 2264,
      "é©¾": 2265,
      "éĴĪ": 2266,
      "ob": 2267,
      "çļĦåħ³éĶ®": 2268,
      "åĿĩ": 2269,
      "æķ¬": 2270,
      "èµı": 2271,
      "å°ıæĿİ": 2272,
      "ä¸Ģå®¶": 2273,
      "æĪĲæľ¬": 2274,
      "åľŁ": 2275,
      "åĩıè½»": 2276,
      "å±ŀ": 2277,
      "å®£": 2278,
      "æĿ°": 2279,
      "æī§": 2280,
      "æĮ¥": 2281,
      "å½¢å¼ı": 2282,
      "åĨĽ": 2283,
      "çĶļ": 2284,
      "å°Ĭéĩį": 2285,
      "è§£åĨ³éĹ®é¢ĺ": 2286,
      "é¡º": 2287,
      "ä¸īä¸ª": 2288,
      "ä¹Łæľī": 2289,
      "..": 2290,
      "èįī": 2291,
      "æ´²": 2292,
      "è¯ĬæĸŃ": 2293,
      "çī©è´¨": 2294,
      "æĺ¯ä¸ĢåĲį": 2295,
      "åıªæĺ¯": 2296,
      "ç¥ŀç»ı": 2297,
      "ä¼´": 2298,
      "å¤ļä¸ª": 2299,
      "è¯Ħä¼°": 2300,
      "åĭĩ": 2301,
      "æ·±åº¦åŃ¦ä¹ł": 2302,
      "æ´ģ": 2303,
      "ç²¾ç¥ŀ": 2304,
      "èģĮåľº": 2305,
      "åĮ»åŃ¦": 2306,
      "çĬ¶æĢģ": 2307,
      "æ¸ħæĻ°": 2308,
      "æ¶Īè´¹èĢħ": 2309,
      "åŃ¤": 2310,
      "é©¶": 2311,
      "å¹¿åĳĬ": 2312,
      "çĥĪ": 2313,
      "è´¥": 2314,
      "æ¶īåıĬ": 2315,
      "çļĦçŁ¥": 2316,
      "æ¨¡å¼ı": 2317,
      "èī¯å¥½": 2318,
      "ä»ĭç»įäºĨ": 2319,
      "èģĬ": 2320,
      "çıŃ": 2321,
      "ä»ĸäºº": 2322,
      "ä»¤äºº": 2323,
      "ä¸ĭæĿ¥": 2324,
      "å¹´çļĦ": 2325,
      "è´§": 2326,
      "åĨ²": 2327,
      "èī¾": 2328,
      "åħ¨çĲĥåıĺæļĸ": 2329,
      "çļĦæķ°æį®": 2330,
      "ä¼ĺåĮĸ": 2331,
      "æľºåĻ¨äºº": 2332,
      "Bob": 2333,
      "ar": 2334,
      "é¦Ī": 2335,
      "æķĪæŀľ": 2336,
      "è¯·éĹ®": 2337,
      "æĦıæĢĿ": 2338,
      "ä¼¦": 2339,
      "ä»¥ä¸ĭæĺ¯ä¸Ģ": 2340,
      "å¯»æ±Ĥ": 2341,
      "éĿ©": 2342,
      "çļĦæı": 2343,
      "åĵĪ": 2344,
      "çĶļèĩ³": 2345,
      "æĭ¿": 2346,
      "äººçĶŁ": 2347,
      "åľ¨çº¿": 2348,
      "æĪĳè§īå¾Ĺ": 2349,
      "çīĽ": 2350,
      "å¹´è½»çļĦ": 2351,
      "åĬĽéĩı": 2352,
      "çļĦæĮĳæĪĺ": 2353,
      "å¤ļæł·": 2354,
      "çīĪ": 2355,
      "ä¸°å¯ĮçļĦ": 2356,
      "ãĢĤ<": 2357,
      "å®ŀéªĮ": 2358,
      "è¿Ļæ®µæĸĩç«ł": 2359,
      "éª¤": 2360,
      "ä¸Ńæĸĩ": 2361,
      "æİ¨å¹¿": 2362,
      "ç¿»": 2363,
      "è¯ļ": 2364,
      "æĹ¨": 2365,
      "åĪĽä¸ļ": 2366,
      "å½Ĵ": 2367,
      "ä¸Ģç¯ĩæĸĩç«ł": 2368,
      "ä¸ĵæ³¨": 2369,
      "çĶŁæĢģç³»ç»Ł": 2370,
      "åĩºèī²": 2371,
      "çĬ¯": 2372,
      "åĨ°": 2373,
      "ç¾İä¸½": 2374,
      "åıįé¦Ī": 2375,
      "éģĩåĪ°": 2376,
      "çī¹çĤ¹": 2377,
      "æĥĬ": 2378,
      "æķ°åŃ¦": 2379,
      "èª": 2380,
      "çĩ": 2381,
      "éģį": 2382,
      "çļĦæŃ": 2383,
      "æ¤įçī©": 2384,
      "åľ°åĮº": 2385,
      "æ°§": 2386,
      "ĠĠ": 2387,
      "çĶŁæ´»æĸ¹å¼ı": 2388,
      "å®Įåħ¨": 2389,
      "å®ĥçļĦ": 2390,
      "åĬ³": 2391,
      "æ³¢": 2392,
      "æĺ¯ä¸Ģä½į": 2393,
      "èĲ¥åħ»": 2394,
      "åıĳæĮ¥": 2395,
      "äººçī©": 2396,
      "ä»įçĦ¶": 2397,
      "çļĦè¯Ŀ": 2398,
      "åĨ·": 2399,
      "å¿Ĩ": 2400,
      "å½©": 2401,
      "éľ²": 2402,
      "ä¸Ĭåįĩ": 2403,
      "æĬĺ": 2404,
      "å®ĩ": 2405,
      "åĩºæĿ¥": 2406,
      "çļĦå»ºè®®": 2407,
      "çļĦéľĢæ±Ĥ": 2408,
      "è¯¾ç¨ĭ": 2409,
      "ä¸Ģæł·": 2410,
      "èĶ¬": 2411,
      "çļĦæķĻ": 2412,
      "åıĮ": 2413,
      "æľīä¸Ģä¸ª": 2414,
      "é¸¡": 2415,
      "çĿ¡çľł": 2416,
      "å¼ĥ": 2417,
      "çļĦæĬĢèĥ½": 2418,
      "å¾Īé«ĺåħ´": 2419,
      "æĿ¥èĩª": 2420,
      "è¿ĺéľĢè¦ģ": 2421,
      "æµĭè¯ķ": 2422,
      "ä»¥ç¡®ä¿Ŀ": 2423,
      "çļĦæ¯": 2424,
      "éĢģ": 2425,
      "æĪĲåĳĺ": 2426,
      "æŃ»": 2427,
      "èº«å¿ĥ": 2428,
      "æĬ¥éģĵ": 2429,
      "å¥ĸ": 2430,
      "èĥģ": 2431,
      "å¨ģèĥģ": 2432,
      "ä¿¡ä»»": 2433,
      "è¿ĩåº¦": 2434,
      "èĢĲ": 2435,
      "æİĴæĶ¾": 2436,
      "éĻ¤äºĨ": 2437,
      "30": 2438,
      "Ġåľ¨": 2439,
      "åģı": 2440,
      "äºĴåĬ¨": 2441,
      "åı¯ä»¥è®©": 2442,
      "åĮĸçļĦ": 2443,
      "ç¼ĸåĨĻ": 2444,
      "éº": 2445,
      "é»Ħ": 2446,
      "çļĦåľ°æĸ¹": 2447,
      "åĽ½å®¶": 2448,
      "çļĦçĪ": 2449,
      "ä¸ĬéĿ¢": 2450,
      "åħ¶å®ŀ": 2451,
      "âĢĿãĢĤ": 2452,
      "ä»ĸä»¬çļĦå¯¹è¯ĿåĨħå®¹": 2453,
      "æ²ī": 2454,
      "æ¼«": 2455,
      "çļĦçĥ": 2456,
      "æľīå¾Īå¤ļ": 2457,
      "å¤«": 2458,
      "ç³»åĪĹ": 2459,
      "èĶ¬èıľ": 2460,
      "ç»ĦæĪĲ": 2461,
      "æĢ¥": 2462,
      "åĺ": 2463,
      "æ·±åĪ»": 2464,
      "åĸĿ": 2465,
      "ä¸Ģèĩ´": 2466,
      "è¡£": 2467,
      "éĻĲåĪ¶": 2468,
      "æĥħèĬĤ": 2469,
      "çļĦçŁ¥è¯Ĩ": 2470,
      "åĪĨéĴŁ": 2471,
      "éĩįåĨĻ": 2472,
      "è¯´æĺİ": 2473,
      "åºĶçĶ¨ç¨ĭåºı": 2474,
      "åħħåĪĨ": 2475,
      "å®¶äºº": 2476,
      "ç¡®å®ŀ": 2477,
      "--": 2478,
      "çļ®": 2479,
      "ä¹Łä¼ļ": 2480,
      "éĿŀå¸¸éĩįè¦ģ": 2481,
      "å¥³æĢ§": 2482,
      "æľªæĿ¥çļĦ": 2483,
      "çĪ±å¥½": 2484,
      "å¹´æĿ¥": 2485,
      "çļĦæ®": 2486,
      "åįĪ": 2487,
      "è®¸å¤ļäºº": 2488,
      "ç»¼": 2489,
      "èĪĴéĢĤ": 2490,
      "å°Ĩåħ¶": 2491,
      "çļĦæĳ": 2492,
      "ç¢³": 2493,
      "è®²è¿°": 2494,
      "å®ļæľŁ": 2495,
      "å°Ĩä¼ļ": 2496,
      "åı¥è¯Ŀ": 2497,
      "çļĦèĥ½åĬĽ": 2498,
      "æĬ¥åĳĬ": 2499,
      "çļĦæĶ¯": 2500,
      "ç±į": 2501,
      "åħ³éĶ®è¯į": 2502,
      "é©¾é©¶": 2503,
      "èį¯çī©": 2504,
      "å°¤åħ¶": 2505,
      "äººéĻħ": 2506,
      "æ¯ķ": 2507,
      "æ¢¦": 2508,
      "ç¥¨": 2509,
      "åĢ¼å¾Ĺ": 2510,
      "é¢Ħéĺ²": 2511,
      "æľīæ²¡æľī": 2512,
      "å·ŀ": 2513,
      "çĥ¤": 2514,
      "åľºæĻ¯": 2515,
      "éĴĪå¯¹": 2516,
      "çĬ¶åĨµ": 2517,
      "èĹ": 2518,
      "å¥¶": 2519,
      "æĸ¹ä¾¿": 2520,
      "è¸": 2521,
      "èģļ": 2522,
      "å½¢è±¡": 2523,
      "åĿĲ": 2524,
      "æĹ¥æľ¬": 2525,
      "æĿİæĺİ": 2526,
      "éŃĶ": 2527,
      "èĦĤ": 2528,
      "æĿ¡ä»¶": 2529,
      "50": 2530,
      "åĪ¶éĢł": 2531,
      "åıĬæĹ¶": 2532,
      "èĮ¶": 2533,
      "ä»ª": 2534,
      "èĵ": 2535,
      "å¿½": 2536,
      "è®ºæĸĩ": 2537,
      "ä¼ĳæģ¯": 2538,
      "çļĦæ®µ": 2539,
      "æľĢä½³": 2540,
      "çļĦæ´": 2541,
      "åħ¬åĽŃ": 2542,
      "ç¼ºä¹ı": 2543,
      "å°ļ": 2544,
      "èĪª": 2545,
      "äºĳ": 2546,
      "å°ģ": 2547,
      "ä½ĨæĪĳ": 2548,
      "è¾¾åĪ°": 2549,
      "æĿİåĽĽ": 2550,
      "åħ¬åħ±": 2551,
      "æľīæķĪåľ°": 2552,
      "æĬĹ": 2553,
      "éĨĴ": 2554,
      "çļĦçĹ": 2555,
      "çļĦæ®µèĲ½": 2556,
      "çĪ¶": 2557,
      "æĭħå¿ĥ": 2558,
      "çľĭçľĭ": 2559,
      "å¥¥": 2560,
      "çļĦç®": 2561,
      "å¿«ä¹Ĳ": 2562,
      "ä¸ĸçºª": 2563,
      "åĴĮåħ¶ä»ĸ": 2564,
      "å®ĺ": 2565,
      "å¿ĥçĲĨåģ¥åº·": 2566,
      "ä»·åĢ¼è§Ĥ": 2567,
      "è®©äºº": 2568,
      "çļĦé£İéĻ©": 2569,
      "åħ·å¤ĩ": 2570,
      "å²Ľ": 2571,
      "çľģ": 2572,
      "èĻļæĭŁ": 2573,
      "çļĦå°ı": 2574,
      "äººä»¬çļĦ": 2575,
      "æĦŁåħ´è¶£": 2576,
      "å¸¸è§ģ": 2577,
      "åĴĮæĸĩåĮĸ": 2578,
      "åľ°æĸ¹": 2579,
      "æ±ĩ": 2580,
      "åı¯ä»¥å¸®åĬ©æĪĳä»¬": 2581,
      "å«": 2582,
      "å®Ī": 2583,
      "çļĦæĢģ": 2584,
      "èŃ¦å¯Ł": 2585,
      "å°Ħ": 2586,
      "æŁĲäºĽ": 2587,
      "å®ł": 2588,
      "åĲĪéĢĤ": 2589,
      "æĪĲç»©": 2590,
      "çİ°è±¡": 2591,
      "çļĦä¸»é¢ĺ": 2592,
      "å¿ĺ": 2593,
      "ç²ī": 2594,
      "è¿Ļæĺ¯ä¸Ģä¸ª": 2595,
      "å¥¹çļĦ": 2596,
      "on": 2597,
      "åįĬ": 2598,
      "çī¹å¾ģ": 2599,
      "èªī": 2600,
      "å¾Īæľī": 2601,
      "æĤ¨å¥½": 2602,
      "å¦ĤæŃ¤": 2603,
      "åıĹæ¬¢è¿İ": 2604,
      "åľ¨å®¶": 2605,
      "çļĦä¸Ģä¸ª": 2606,
      "æķĳ": 2607,
      "è¶ħè¿ĩ": 2608,
      "åĨĴ": 2609,
      "çļĦæ²ŁéĢļ": 2610,
      "çĸ²": 2611,
      "é¥Ń": 2612,
      "å¯¹è¯ĿåĨħå®¹åĽŀçŃĶ": 2613,
      "è¯ĳ": 2614,
      "æŃ£ç¡®çļĦ": 2615,
      "å©ļ": 2616,
      "ice": 2617,
      "éĢ»": 2618,
      "éĵ¶": 2619,
      "çĹĩçĬ¶": 2620,
      "æ²Ļ": 2621,
      "ç¬¬ä¸Ģ": 2622,
      "åĲ¯": 2623,
      "è¯ŃéŁ³": 2624,
      "åĵģè´¨": 2625,
      "æľŁå¾ħ": 2626,
      "å³": 2627,
      "éĵ¾": 2628,
      "æĥ³æ³ķ": 2629,
      "æľīä¸Ģ": 2630,
      "å¾ĹåĪ°äºĨ": 2631,
      "Ġ-": 2632,
      "çº³": 2633,
      "è¯Ħä»·": 2634,
      "Li": 2635,
      "å»¶": 2636,
      "æľ¨": 2637,
      "è®¤çľŁ": 2638,
      "æıĲåĪ°": 2639,
      "åĳ¼åĲ¸": 2640,
      "æ°´æŀľ": 2641,
      "çļĦæĥħæĦŁ": 2642,
      "er": 2643,
      "è¡ĮæĺŁ": 2644,
      "éģµ": 2645,
      "åĨħå¿ĥ": 2646,
      "çĵ": 2647,
      "å²ģçļĦ": 2648,
      "æ¯ıä¸ªäººéĥ½": 2649,
      "çļĦçĿ": 2650,
      "çļĦçĽ®æłĩ": 2651,
      "ä¼½": 2652,
      "éĢ»è¾ĳ": 2653,
      "æķ°åŃĹåĮĸ": 2654,
      "ï¼īï¼Į": 2655,
      "æĽ²": 2656,
      "çļĦæ³": 2657,
      "æµªè´¹": 2658,
      "æĺ¥": 2659,
      "åŃ¤çĭ¬": 2660,
      "ä¹¦ç±į": 2661,
      "æŃ¥éª¤": 2662,
      "è¿Ľå±ķ": 2663,
      "éģĹ": 2664,
      "äºĭå®ŀ": 2665,
      "åı¯èĥ½æĺ¯": 2666,
      "æ°Ķä½ĵ": 2667,
      "æĿ¯": 2668,
      "æ£®": 2669,
      "å®Ļ": 2670,
      "è®°å½ķ": 2671,
      "å½¢æĪĲ": 2672,
      "åģľ": 2673,
      "æııåĨĻ": 2674,
      "èĪ¬": 2675,
      "æĵħ": 2676,
      "èĸ": 2677,
      "Alice": 2678,
      "æ¬£": 2679,
      "><": 2680,
      "åķĨåĵģ": 2681,
      "åĲįç§°": 2682,
      "æĶ¿çŃĸ": 2683,
      "è¿Ļæĺ¯ä¸Ģ": 2684,
      "å¸ģ": 2685,
      "æľīåĵªäºĽ": 2686,
      "åıĳå¸ĥ": 2687,
      "æįŁ": 2688,
      "è¯Ńæ³ķ": 2689,
      "æľŁéĹ´": 2690,
      "an": 2691,
      "éĩįè§Ĩ": 2692,
      "æĦŁåıĹ": 2693,
      "å¾ª": 2694,
      "çģ¾å®³": 2695,
      "å®ĩå®Ļ": 2696,
      "åĬĽçļĦ": 2697,
      "çŃīé¢ĨåŁŁ": 2698,
      "å®łçī©": 2699,
      "å°ıæĹ¶": 2700,
      "çļĦçĶŁæ´»æĸ¹å¼ı": 2701,
      "æıĲåĪ°äºĨ": 2702,
      "å·¥ç¨ĭå¸Ī": 2703,
      "æĭĽ": 2704,
      "ä¸»äºº": 2705,
      "ľä¼½": 2706,
      "æµ·æ´ĭ": 2707,
      "èĤ¡": 2708,
      "åĴĮç¤¾ä¼ļ": 2709,
      "èģĺ": 2710,
      "è§Ĥä¼Ĺ": 2711,
      "çļĦä¸»è¦ģåĨħå®¹": 2712,
      "è¯Ĺ": 2713,
      "æıĲåĩº": 2714,
      "è§Ĥå¯Ł": 2715,
      "æĵħéķ¿": 2716,
      "éĢı": 2717,
      "éĿŀå¸¸éĩįè¦ģçļĦ": 2718,
      "æľºæŀĦ": 2719,
      "æļ´": 2720,
      "çļĦçĿ¡çľł": 2721,
      "æĪĳå¾Ī": 2722,
      "æĬ½": 2723,
      "åıĺå¾ĹæĽ´åĬł": 2724,
      "è§¦": 2725,
      "çļĦæĶ¯æĮģ": 2726,
      "æĪĲå°±": 2727,
      "ä¸įå¤ª": 2728,
      "ç¨ĭåº¦": 2729,
      "ç»´æĬ¤": 2730,
      "æĦī": 2731,
      "éĵģ": 2732,
      "ä¹ĭåĲİ": 2733,
      "ä¸ĵå®¶": 2734,
      "éĥ½ä¼ļ": 2735,
      "çļĦæķĪ": 2736,
      "çĶµåŃĲéĤ®ä»¶": 2737,
      "èĭ¦": 2738,
      "å¤ªç©º": 2739,
      "çĽ´æİ¥": 2740,
      "ç¬ĳ": 2741,
      "éĢŁåº¦": 2742,
      "çĭ¬çī¹çļĦ": 2743,
      "è¿Ļæ¬¡": 2744,
      "äº®": 2745,
      "å¿ĥåĴĮ": 2746,
      "æľĢå¥½çļĦ": 2747,
      "åĲĮäºĭ": 2748,
      "åĲįåŃĹ": 2749,
      "ä½ĵèĤ²": 2750,
      "æ·»": 2751,
      "æķı": 2752,
      "åı¯æĮģç»Ńåıĳå±ķ": 2753,
      "æĺ¯æĮĩ": 2754,
      "çļĦåĨħå®¹": 2755,
      "çļĦåŃ¦ä¹ł": 2756,
      "æĢķ": 2757,
      "ä¹ŁéľĢè¦ģ": 2758,
      "èĢĮä¸įæĺ¯": 2759,
      "å¹»": 2760,
      "çĶµèĦĳ": 2761,
      "æ´ŀ": 2762,
      "åºĶçĶ¨äºİ": 2763,
      "çļĦæĸ°": 2764,
      "éĢĢ": 2765,
      "çļĦæ°´": 2766,
      "åĢ¾": 2767,
      "çıį": 2768,
      "åĽ½éĻħ": 2769,
      "çĶµè§Ĩ": 2770,
      "æĢİæł·": 2771,
      "çĶŁåŃĺ": 2772,
      "åĽłä¸ºå®ĥ": 2773,
      "ĠĊ": 2774,
      "æ²³": 2775,
      "æĶ»": 2776,
      "æĪĳåı¯ä»¥": 2777,
      "ä¸ªæĢ§": 2778,
      "ç¬Ķ": 2779,
      "çĸ«æĥħ": 2780,
      "å¥ĭ": 2781,
      "ç¥ŀç§ĺ": 2782,
      "è¯·åĽŀçŃĶ": 2783,
      "çļĦå¤§": 2784,
      "å¤±è´¥": 2785,
      "æĭĵ": 2786,
      "å®¡": 2787,
      "çļĦç¬": 2788,
      "å¹´è½»äºº": 2789,
      "é¢ľ": 2790,
      "æĶ¯ä»ĺ": 2791,
      "ä¿Ŀåģ¥": 2792,
      "æĪĳæľĢè¿ĳ": 2793,
      "ç«¥": 2794,
      "æį·": 2795,
      "çķħ": 2796,
      "å·²ç»ıæĪĲä¸º": 2797,
      "ä¸Ģç§įæĸ¹å¼ı": 2798,
      "æľĢå¤§": 2799,
      "çĹħæ¯Ĵ": 2800,
      "å¯¹æĸ¹": 2801,
      "é¢Ħè®Ńç»ĥ": 2802,
      "çļĦåģ¥åº·": 2803,
      "ç»ĵè®º": 2804,
      "åŁ¹è®Ń": 2805,
      "æĢ»ä¹ĭ": 2806,
      "è½»æĿ¾": 2807,
      "å¯¹çİ¯å¢ĥ": 2808,
      "èĹı": 2809,
      "è¿ħ": 2810,
      "æıĲåĩºäºĨ": 2811,
      "èµĸ": 2812,
      "ä¸Ģä¸ªäºº": 2813,
      "æ³ķå¾ĭ": 2814,
      "åĪĽä½ľ": 2815,
      "èİ·åıĸ": 2816,
      "åĮĹäº¬": 2817,
      "æĸĩåŃĹ": 2818,
      "ç½ª": 2819,
      "çļĦæĬķ": 2820,
      "ä¾¿åĪ©": 2821,
      "åĴĮåıĳå±ķ": 2822,
      "èĦ±": 2823,
      "åı¶": 2824,
      "æĸĹ": 2825,
      "è®¤çŁ¥": 2826,
      "ç¬¦åĲĪ": 2827,
      "äºĭçī©": 2828,
      "èİī": 2829,
      "æģĲ": 2830,
      "èĤ¥": 2831,
      "åĪ«äºº": 2832,
      "è¿Ļé¡¹": 2833,
      "åı¯ä»¥æıĲé«ĺ": 2834,
      "éĤ£éĩĮ": 2835,
      "åħĥç´ł": 2836,
      "ç´¯": 2837,
      "è¿Ļéĥ¨": 2838,
      "èĭĹ": 2839,
      "å¦Ī": 2840,
      "ç»ĻæĪĳ": 2841,
      "ä½¿åħ¶": 2842,
      "çĽ¸äºĴ": 2843,
      "æĲľ": 2844,
      "ç¨³å®ļ": 2845,
      "æĦ¿æĦı": 2846,
      "è¿ĳå¹´æĿ¥": 2847,
      "æī°": 2848,
      "Ġ\"": 2849,
      "ç©ºéĹ´": 2850,
      "å¥ı": 2851,
      "å½¼": 2852,
      "æľĢæĸ°": 2853,
      "çĳľä¼½": 2854,
      "ä½łèĥ½": 2855,
      "è¿Ľåħ¥": 2856,
      "æī§è¡Į": 2857,
      "æĸĩåĮĸåĴĮ": 2858,
      "ä»ĸåľ¨": 2859,
      "æģ¶": 2860,
      "çļĦçŃĶæ¡Ī": 2861,
      "è¿Ļä¹Ī": 2862,
      "è´¢åĬ¡": 2863,
      "åįĥ": 2864,
      "åĹ¯": 2865,
      "åĤ¨": 2866,
      "æĹ¨åľ¨": 2867,
      "å¸®æĪĳ": 2868,
      "æĺİçĻ½": 2869,
      "æĪĳä»¬çļĦçĶŁæ´»": 2870,
      "éĽ¨": 2871,
      "æĦıè¯ĨåĪ°": 2872,
      "ç¿»è¯ĳ": 2873,
      "æĽ¿": 2874,
      "å®¶å±ħ": 2875,
      "é¸Ł": 2876,
      "æĢĿæĥ³": 2877,
      "çļĦä¸Ģéĥ¨åĪĨ": 2878,
      "åĴĮæĮĳæĪĺ": 2879,
      "åľ¨åĮ»çĸĹ": 2880,
      "é«ĺçļĦ": 2881,
      "æĦıåĳ³": 2882,
      "ç¥Ŀ": 2883,
      "åĪĽå»º": 2884,
      "æľīçĤ¹": 2885,
      "éĥģ": 2886,
      "æĵį": 2887,
      "æĮīçħ§": 2888,
      "200": 2889,
      "æľĢå¥½": 2890,
      "ä¸ĢçĽ´åľ¨": 2891,
      "æĮĩå¯¼": 2892,
      "è´Łè´£": 2893,
      "åĴĮæĶ¯æĮģ": 2894,
      "æĿĳ": 2895,
      "å¡ĳæĸĻ": 2896,
      "æī¹": 2897,
      "è·Ŀ": 2898,
      "ç¬¬ä¸ī": 2899,
      "è¯ģæĺİ": 2900,
      "æ¬£èµı": 2901,
      "éļ¾ä»¥": 2902,
      "ç¢į": 2903,
      "æ»©": 2904,
      "åľ¨äºİ": 2905,
      "æĦıåĳ³çĿĢ": 2906,
      "çĩĥ": 2907,
      "åĲĦä¸ª": 2908,
      "å¾ĭå¸Ī": 2909,
      "ä¸»ä¹ī": 2910,
      "æķħ": 2911,
      "ç©ºæ°Ķ": 2912,
      "çļĦæĭ": 2913,
      "ä½įç½®": 2914,
      "æĽ´å¥½åľ°çĲĨè§£": 2915,
      "èľ": 2916,
      "åĨł": 2917,
      "çļĦç¼": 2918,
      "éĺ¶": 2919,
      "å¿ħè¦ģçļĦ": 2920,
      "çļĦæĢģåº¦": 2921,
      "éģĵå¾·": 2922,
      "çİ¯å¢ĥä¿ĿæĬ¤": 2923,
      "çļĦæĸĩæľ¬": 2924,
      "å¯¹è¯Ŀä¸Ń": 2925,
      "å°Ĭæķ¬": 2926,
      "ä¼łæĴŃ": 2927,
      "ä»£çłģ": 2928,
      "èĪŀ": 2929,
      "çļĦåİŁåĽł": 2930,
      "æł¸": 2931,
      "åįģåĪĨ": 2932,
      "é¾Ļ": 2933,
      "ç»¿èī²": 2934,
      "è®¨è®ºäºĨ": 2935,
      "éĽĨä¸Ń": 2936,
      "åĳĬè¯īæĪĳ": 2937,
      "èĦı": 2938,
      "ç§¯æŀģçļĦ": 2939,
      "çļĦæ´»": 2940,
      "ä¸ĸçķĮä¸Ĭ": 2941,
      "100": 2942,
      "æĿİåįİ": 2943,
      "è¿Ľè¡ĮäºĨ": 2944,
      "åľ¨æľªæĿ¥": 2945,
      "äº§çĶŁäºĨ": 2946,
      "åĽº": 2947,
      "ä½łåľ¨": 2948,
      "çļĦç²": 2949,
      "æ··": 2950,
      "åįķè¯į": 2951,
      "å·¦": 2952,
      "æĻ¯çĤ¹": 2953,
      "ç»ıè¿ĩ": 2954,
      "å¤±åİ»": 2955,
      "å±ķçİ°": 2956,
      "éĩįæĸ°æııè¿°": 2957,
      "éĤĢ": 2958,
      "æĽ´å®¹æĺĵ": 2959,
      "å¸¸å¸¸": 2960,
      "ç§»åĬ¨": 2961,
      "ç»ĵåĲĪ": 2962,
      "è¯ģæį®": 2963,
      "çĭ¬ç«ĭ": 2964,
      "çļĦç¤¾äº¤": 2965,
      "çº¸": 2966,
      "å®¤æ°Ķä½ĵ": 2967,
      "æį¢ä¸Ģç§įæĸ¹å¼ı": 2968,
      "å«Į": 2969,
      "èĤª": 2970,
      "çĶŁæĪĲä¸Ģä¸ª": 2971,
      "åŁºäºİä»¥ä¸Ĭè¿Ļæ®µæĸĩæľ¬æį¢ä¸Ģç§įæĸ¹å¼ı": 2972,
      "èĦĤèĤª": 2973,
      "åŁºäºİä»¥ä¸Ĭè¿Ļæ®µæĸĩæľ¬æį¢ä¸Ģç§įæĸ¹å¼ıéĩįæĸ°æııè¿°": 2974,
      "å¦ĤæŀľæĤ¨": 2975,
      "èĩ³å°ĳ": 2976,
      "ç±»ä¼¼": 2977,
      "å·¥ä¸ļ": 2978,
      "éģĩåĪ°äºĨ": 2979,
      "è§Ĩè§ī": 2980,
      "åĢŁ": 2981,
      "å¾Īå¤ļäºº": 2982,
      "è®°å¿Ĩ": 2983,
      "åŁºäºİä»¥ä¸Ĭè¿Ļæ®µæĸĩæľ¬éĩįæĸ°æ¶¦èī²": 2984,
      "ä¿Ŀè¯ģæĦıæĢĿ": 2985,
      "ä¿Ŀè¯ģæĦıæĢĿä¸Ģèĩ´": 2986,
      "ãĢĤ\"": 2987,
      "è®¿": 2988,
      "ä¸įæĸŃåľ°": 2989,
      "åıįåºĶ": 2990,
      "çļĦçİ¯å¢ĥ": 2991,
      "åı³": 2992,
      "å°ıçİĭ": 2993,
      "è®¢": 2994,
      "é¢ľèī²": 2995,
      "å½ĵä»Ĭ": 2996,
      "ç½ĳç«Ļ": 2997,
      "uc": 2998,
      "äººå£«": 2999,
      "äºĭä¸ļ": 3000,
      "åģ¥åº·é¥®é£Ł": 3001,
      "é¢ĺçĽ®": 3002,
      "åĴĮå·¥ä½ľ": 3003,
      "ä¸ºæĤ¨": 3004,
      "èĩ³åħ³éĩįè¦ģ": 3005,
      "è¡¥": 3006,
      "çŃīéĹ®é¢ĺ": 3007,
      "åħ¨éĿ¢": 3008,
      "æĸ¹éĿ¢çļĦ": 3009,
      "ä¼ĺçĤ¹": 3010,
      "åķĨåĬ¡": 3011,
      "å¸ĤåľºèĲ¥éĶĢ": 3012,
      "éļıæĹ¶": 3013,
      "åħ°": 3014,
      "å¾Ģå¾Ģ": 3015,
      "æĽ¾ç»ı": 3016,
      "çİ°ä»£ç¤¾ä¼ļ": 3017,
      "æĽ´æľī": 3018,
      "æľ¬ä¹¦": 3019,
      "çļĦç¨": 3020,
      "èĢĮæĺ¯": 3021,
      "ä¹ĭå¤ĸ": 3022,
      "æ»¡æĦı": 3023,
      "ä¿®æĶ¹": 3024,
      "é¾Ħ": 3025,
      "æİ¨åĩº": 3026,
      "çĸ«èĭĹ": 3027,
      "å·¨å¤§": 3028,
      "äººéĻħåħ³ç³»": 3029,
      "æ´Ĺ": 3030,
      "åĲĮæł·": 3031,
      "å°½åı¯èĥ½": 3032,
      "æ·»åĬł": 3033,
      "è·¨": 3034,
      "è¿ĻäºĽéĹ®é¢ĺ": 3035,
      "åİļ": 3036,
      "ä¸ĢèĪ¬": 3037,
      "æĬĳ": 3038,
      "å¤§åĪ©": 3039,
      "è¡Ģåİĭ": 3040,
      "éĢīé¡¹": 3041,
      "çļĦçĥŃ": 3042,
      "æĻļä¸Ĭ": 3043,
      "æĹ¶å°ļ": 3044,
      "åºĬ": 3045,
      "çļĦæĢ§": 3046,
      "ä¾Ŀèµĸ": 3047,
      "æµģè¡Į": 3048,
      "éķĩ": 3049,
      "è§Ħæ¨¡": 3050,
      "æľ«": 3051,
      "æĮĩåĩº": 3052,
      "çļĦçĭ": 3053,
      "æĸĩç«łä¸Ń": 3054,
      "æ¥¼": 3055,
      "å»ºè®¾": 3056,
      "è¯·æĢ»ç»ĵ": 3057,
      "ä¸įè¶³": 3058,
      "èµŀ": 3059,
      "èĥ½åĬĽåĴĮ": 3060,
      "å¾Ħ": 3061,
      "ä¼¼ä¹İ": 3062,
      "å®£ä¼ł": 3063,
      "å½ĵåīį": 3064,
      "åįĸ": 3065,
      "æĶ¾å¼ĥ": 3066,
      "çļĦåİĨåı²": 3067,
      "åºĵ": 3068,
      "èĩªèº«": 3069,
      "åĳ¨åĽ´": 3070,
      "çĽĲ": 3071,
      "åħįçĸ«": 3072,
      "ç¥ŀç»ıç½ĳç»ľ": 3073,
      "ä¸Ŀ": 3074,
      "æĪĳä»¬å°Ĩ": 3075,
      "è±Ĩ": 3076,
      "èĩªè¡Į": 3077,
      "ç§ĳæĬĢçļĦ": 3078,
      "ä¸įä»ħä»ħ": 3079,
      "è®©ä½ł": 3080,
      "åīįæĻ¯": 3081,
      "Luc": 3082,
      "äºĨè®¸å¤ļ": 3083,
      "åĢĴ": 3084,
      "æľīä¸ĢäºĽ": 3085,
      "æĢĢ": 3086,
      "çļĦè¿ĲåĬ¨": 3087,
      "çĿ¡": 3088,
      "12": 3089,
      "æłĩåĩĨ": 3090,
      "æī©å¤§": 3091,
      "èĵĿ": 3092,
      "å·¥ä½ľåĴĮ": 3093,
      "å¥³åŃ©": 3094,
      "æĩĤ": 3095,
      "æĿ¥æºĲ": 3096,
      "è¶³çĲĥ": 3097,
      "åıªè¦ģ": 3098,
      "æĿŁ": 3099,
      "ä½łæĺ¯": 3100,
      "èģĮä½į": 3101,
      "äº¿": 3102,
      "åĬ¨åĬĽ": 3103,
      "éĽ¶": 3104,
      "åĨįçĶŁ": 3105,
      "åĪº": 3106,
      "æ±ł": 3107,
      "å¦Ĥä½ķåľ¨": 3108,
      "çļĦæİ¨": 3109,
      "èµ¢": 3110,
      "ä¹Łå¾Ī": 3111,
      "ä»¥æĿ¥": 3112,
      "çļĦç¥": 3113,
      "é¢ĨåŁŁçļĦ": 3114,
      "éķ¿æĹ¶éĹ´": 3115,
      "çļĦäº§åĵģ": 3116,
      "åĴ¨": 3117,
      "è·³": 3118,
      "è°·": 3119,
      "èĤ¤": 3120,
      "åĨĻä¸Ģç¯ĩ": 3121,
      "ç»ıéªĮåĴĮ": 3122,
      "åĪ©çĽĬ": 3123,
      "èį£": 3124,
      "æ£Ĵ": 3125,
      "åĴ¨è¯¢": 3126,
      "Ja": 3127,
      "çī©åĵģ": 3128,
      "æĽ´å¥½åľ°äºĨè§£": 3129,
      "èĽĭçĻ½": 3130,
      "èī¾ç±³": 3131,
      "æ¯ķä¸ļ": 3132,
      "èĥ½éĩı": 3133,
      "æł¹æį®ç»Ļå®ļçļĦ": 3134,
      "æĤ¨åı¯ä»¥": 3135,
      "åįģå¹´": 3136,
      "æĪĳéľĢè¦ģ": 3137,
      "çĶ³": 3138,
      "å¯¹äººç±»": 3139,
      "çļĦæĬķèµĦ": 3140,
      "çļĦä½¿çĶ¨": 3141,
      "æĸĩæľ¬ä¸Ń": 3142,
      "çļĦç½": 3143,
      "å¼ĢæĶ¾": 3144,
      "éĿŀå¸¸æľī": 3145,
      "è§Ĩé¢ĳ": 3146,
      "éĩįæĸ°æııåĨĻ": 3147,
      "ä¸ĬéĿ¢è¿Ļæ®µæĸĩç«ł": 3148,
      "éĩįæĸ°æııåĨĻä¸ĬéĿ¢è¿Ļæ®µæĸĩç«ł": 3149,
      "15": 3150,
      "æŀ¶": 3151,
      "éĩįçĤ¹": 3152,
      "ç²¾åĬĽ": 3153,
      "åįıä½ľ": 3154,
      "çĽ¸åħ³çļĦ": 3155,
      "åĸľæ¬¢çļĦ": 3156,
      "åºŁ": 3157,
      "éĢĴ": 3158,
      "çĥŃçĪ±": 3159,
      "æĺ¾ç¤º": 3160,
      "æĺł": 3161,
      "æĥħåĨµä¸ĭ": 3162,
      "æ½ľåľ¨": 3163,
      "æĻºèĥ½æīĭæľº": 3164,
      "è¿ħéĢŁ": 3165,
      "æ¬§": 3166,
      "æİī": 3167,
      "æĬ±": 3168,
      "å¾Īå¤§": 3169,
      "æĪĸç¼º": 3170,
      "æĹ©ä¸Ĭ": 3171,
      "çŃ¾": 3172,
      "å·®å¼Ĥ": 3173,
      "æ±ī": 3174,
      "ä¸ĢäºĽäºº": 3175,
      "ä½įäºİ": 3176,
      "ç£": 3177,
      "å¤§å¤ļ": 3178,
      "æľĿ": 3179,
      "å·¥ä½ľæķĪçİĩ": 3180,
      "ä¸įåı¯æĪĸç¼º": 3181,
      "æħ§": 3182,
      "è¾ĵåĩº": 3183,
      "åĪĽæĦı": 3184,
      "æľīæīĢ": 3185,
      "éĿŀå¸¸æĦŁè°¢": 3186,
      "æ¸¸å®¢": 3187,
      "çļĦæ´»åĬ¨": 3188,
      "å´": 3189,
      "åľ¨ä¸Ģä¸ª": 3190,
      "å¼ºè°ĥäºĨ": 3191,
      "æĹ¶æľŁ": 3192,
      "æķ°éĩı": 3193,
      "åłĤ": 3194,
      "âĢĶâĢĶ": 3195,
      "ç»ĺ": 3196,
      "æī®": 3197,
      "çĨĬ": 3198,
      "æİ¢è®¨äºĨ": 3199,
      "ä¸Ģé¡¹": 3200,
      "æĹ¶åĪ»": 3201,
      "æľĹ": 3202,
      "çļĦæĻº": 3203,
      "çļĦå¥½": 3204,
      "è§Ĵåº¦": 3205,
      "æĺ¯æĪĳä»¬": 3206,
      "éĹ²": 3207,
      "çļĦçģ": 3208,
      "åı¤ä»£": 3209,
      "è¢ĭ": 3210,
      "éĤ£ä¸ª": 3211,
      "è¿Ļæł·çļĦ": 3212,
      "çļĦæıĲ": 3213,
      "å¼±": 3214,
      "åįļçī©": 3215,
      "åįł": 3216,
      "èĩªçĦ¶çģ¾å®³": 3217,
      "æĭį": 3218,
      "th": 3219,
      "å·²æĪĲä¸º": 3220,
      "é¥®é£Łä¹łæĥ¯": 3221,
      "äºĪ": 3222,
      "å°±ä¸ļ": 3223,
      "çĶŁæĪĲä¸Ģæ®µ": 3224,
      "ly": 3225,
      "æľīäºº": 3226,
      "æĦŁåĴĮ": 3227,
      "èĮĥåĽ´åĨħ": 3228,
      "ç´§å¼ł": 3229,
      "åľ¨ä¸Ģèµ·": 3230,
      "ä¼Ļ": 3231,
      "å¹¶æıĲä¾Ľ": 3232,
      "ä¸įæĸŃåıĳå±ķ": 3233,
      "å¯¹è¯ĿçļĦä¸»è¦ģåĨħå®¹": 3234,
      "åģļå¥½": 3235,
      "çľŁå®ŀ": 3236,
      "åºĨ": 3237,
      "å¹¶æ²¡æľī": 3238,
      "æĺİæĺ¾": 3239,
      "ä¹ĭå¤Ħ": 3240,
      "çļĦå®īåħ¨": 3241,
      "æĸ°é²ľ": 3242,
      "18": 3243,
      "æĳĦåħ¥": 3244,
      "éĥ¨éĹ¨": 3245,
      "å¹³éĿ¢": 3246,
      "ä»¥ä¸Ĭå¯¹è¯ĿçļĦä¸»è¦ģåĨħå®¹": 3247,
      "åĨįæ¬¡": 3248,
      "çļĦç¤¾ä¼ļ": 3249,
      "è¯·æĢ»ç»ĵä»¥ä¸Ĭå¯¹è¯ĿçļĦä¸»è¦ģåĨħå®¹": 3250,
      "æİĪ": 3251,
      "çĽ®çļĦ": 3252,
      "èĩªåĬ¨åĮĸ": 3253,
      "éŀ": 3254,
      "çł´åĿı": 3255,
      "çļĦçľĭ": 3256,
      "å¤ļå°ĳ": 3257,
      "ä¸ĭéĻį": 3258,
      "åĪĨéħį": 3259,
      "å¯¹æīĭ": 3260,
      "æķ¢": 3261,
      "æĪĲæŀľ": 3262,
      "åį·": 3263,
      "å¤§èĦĳ": 3264,
      "é»ĺ": 3265,
      "ä¸Ģåıª": 3266,
      "åĪĨä¸º": 3267,
      "çļĦæµ·": 3268,
      "çļĦæķĻèĤ²": 3269,
      "åıĸå¾ĹäºĨ": 3270,
      "åĦ¿ç«¥": 3271,
      "çļĦæ¸¸": 3272,
      "çļĦçĪ±": 3273,
      "éĻ·": 3274,
      "ä½Ļ": 3275,
      "çľĭèµ·æĿ¥": 3276,
      "å¹¶ä¸º": 3277,
      "åİĭåĬĽåĴĮ": 3278,
      "ä¸ĵæ³¨äºİ": 3279,
      "è¸ª": 3280,
      "è§Ħå¾ĭ": 3281,
      "åĨľä¸ļ": 3282,
      "æľīçļĦ": 3283,
      "æĿ¥æıĲé«ĺ": 3284,
      "é»İ": 3285,
      "ä¼ģä¸ļå®¶": 3286,
      "æĪĳä»¬ä¼ļ": 3287,
      "ä½łè®¤ä¸º": 3288,
      "è§ĦåĪĻ": 3289,
      "éĩįåĨĻè¿Ļæ®µæĸĩæľ¬": 3290,
      "å¿§": 3291,
      "åĮ»éĻ¢": 3292,
      "åĬŀåħ¬": 3293,
      "å°Ĭæķ¬çļĦ": 3294,
      "è²": 3295,
      "åı¯èĥ½å¯¼èĩ´": 3296,
      "ç§ĭ": 3297,
      "å¸¦æĿ¥çļĦ": 3298,
      "æ¸©å®¤æ°Ķä½ĵ": 3299,
      "åĪļåĪļ": 3300,
      "éļľç¢į": 3301,
      "åľ¨è¿ĩåİ»": 3302,
      "çī¹èī²": 3303,
      "èĳĹåĲįçļĦ": 3304,
      "è§Ī": 3305,
      "æĹ¥å¸¸çĶŁæ´»ä¸Ń": 3306,
      "æ£®æŀĹ": 3307,
      "åĬĽäºİ": 3308,
      "æĿ°åħĭ": 3309,
      "èĤ¯": 3310,
      "æĪĳå¯¹": 3311,
      "çļĦé£Łçī©": 3312,
      "èĭı": 3313,
      "åŁºäºİä»¥ä¸ĭ": 3314,
      "è®¡ç®Ĺæľºç§ĳåŃ¦": 3315,
      "çļĦæ½ľ": 3316,
      "æİĺ": 3317,
      "ä¹Łä¸į": 3318,
      "ãĢĤãĢĤ": 3319,
      "åĴĮæľįåĬ¡": 3320,
      "è¯įæ±ĩ": 3321,
      "äººæ°ĳ": 3322,
      "æķ°æį®åĪĨæŀĲ": 3323,
      "å·¨å¤§çļĦ": 3324,
      "ä¹Łåľ¨": 3325,
      "æµģç¨ĭ": 3326,
      "åį±éĻ©": 3327,
      "æ³³": 3328,
      "èµĦéĩĳ": 3329,
      "åį³ä½¿": 3330,
      "å±ŀäºİ": 3331,
      "å«Įçĸĳ": 3332,
      "æŃ£å¸¸": 3333,
      "èº«ä½ĵåĴĮ": 3334,
      "åı¯åĨįçĶŁ": 3335,
      "çĶŁæ´»çļĦ": 3336,
      "çĪ±æĥħ": 3337,
      "å±ħæ°ĳ": 3338,
      "è°ģ": 3339,
      "èĤĮ": 3340,
      "åı¯éĿł": 3341,
      "çī©ç§į": 3342,
      "åĵģå°Ŀ": 3343,
      "å°½å¿«": 3344,
      "èĩªè¡Įè½¦": 3345,
      "äº¡": 3346,
      "çļĦç²¾": 3347,
      "æĭ¼": 3348,
      "çļĦç¬¬": 3349,
      "åįļçī©é¦Ĩ": 3350,
      "ç´łè´¨": 3351,
      "æģ©": 3352,
      "çī©çĲĨ": 3353,
      "å¡Ķ": 3354,
      "èĨ": 3355,
      "éªĳ": 3356,
      "æĶ¶éĽĨ": 3357,
      "éŃĶæ³ķ": 3358,
      "æ´¾": 3359,
      "è¡¨æ¼Ķ": 3360,
      "å®ĥä»¬çļĦ": 3361,
      "çļĦæĦıä¹ī": 3362,
      "åľĪ": 3363,
      "åį«çĶŁ": 3364,
      "æľīæĹ¶åĢĻ": 3365,
      "æĺŁçĲĥ": 3366,
      "åĨĴéĻ©": 3367,
      "ä½¿çĶ¨çļĦ": 3368,
      "ç¤¼ä»ª": 3369,
      "åĪ¤æĸŃ": 3370,
      "æĪ´": 3371,
      "è¾Ĩ": 3372,
      "æĪĳåĲ¬è¯´": 3373,
      "è¿¹": 3374,
      "çĽ¸ä¼¼": 3375,
      "èĩ´åĬĽäºİ": 3376,
      "æĺ¯ä¸ŃåĽ½": 3377,
      "ħåĬĽ": 3378,
      "çļĦåŁºç¡Ģ": 3379,
      "åĨ¥": 3380,
      "è¡Ĺ": 3381,
      "çĻĮ": 3382,
      "ç»ŃåĨĻ": 3383,
      "äºĨå¾Īå¤ļ": 3384,
      "çļĦçº": 3385,
      "è¢«è®¤ä¸º": 3386,
      "ç¯®": 3387,
      "çļĦæ²»": 3388,
      "ç¾İå¥½çļĦ": 3389,
      "æĹ¢": 3390,
      "éľĩ": 3391,
      "çĻ»": 3392,
      "æĮ«": 3393,
      "ä¸»äººåħ¬": 3394,
      "æľĢå¤§çļĦ": 3395,
      "å¥Ĺ": 3396,
      "ï¼Ł<": 3397,
      "äººç±»çļĦ": 3398,
      "çļĦæľºä¼ļ": 3399,
      "åľ°çĤ¹": 3400,
      "æĺ¯ä¸Ģé¡¹": 3401,
      "çĥŁ": 3402,
      "ä¸»è§Ĵ": 3403,
      "æĲŃ": 3404,
      "èģª": 3405,
      "ä¿Ŀéļľ": 3406,
      "æīĭæľ¯": 3407,
      "æ¿Ģåıĳ": 3408,
      "çļĦçľĭæ³ķ": 3409,
      "in": 3410,
      "è¿Ļéĥ¨çĶµå½±": 3411,
      "¹æŀľ": 3412,
      "æ¯Ľ": 3413,
      "çĽ®çļĦåľ°": 3414,
      "åĩłå¹´": 3415,
      "å¾Īéļ¾": 3416,
      "æ¶µ": 3417,
      "èĭ¹æŀľ": 3418,
      "åĸĦäºİ": 3419,
      "æļĹ": 3420,
      "åĨ²çªģ": 3421,
      "æĦŁåıĹåĪ°": 3422,
      "çļĦæłĩ": 3423,
      "å·´é»İ": 3424,
      "éĵ¶è¡Į": 3425,
      "çĥŃæĥħ": 3426,
      "åŃ£èĬĤ": 3427,
      "21": 3428,
      "ç¼©": 3429,
      "è¯ķåĽ¾": 3430,
      "çģµæ´»": 3431,
      "å¹´é¾Ħ": 3432,
      "éĽª": 3433,
      "åĨ¬": 3434,
      "æĵįä½ľ": 3435,
      "ç»´æĮģ": 3436,
      "èĦ¸": 3437,
      "åħ»æĪĲ": 3438,
      "å³°": 3439,
      "æīĭæ®µ": 3440,
      "æľīæķĪçļĦ": 3441,
      "çİ©å®¶": 3442,
      "æĺ¯æĪĳ": 3443,
      "æ³¨æĦıåĬĽ": 3444,
      "ĠâĢľ": 3445,
      "è¯·ç»ŃåĨĻ": 3446,
      "äº§åĵģçļĦ": 3447,
      "ä¸Ńæĸĩæĸĩç«ł": 3448,
      "è¯»ä¹¦": 3449,
      "å½¼æŃ¤": 3450,
      "å¥½äºĨ": 3451,
      "æ¶¯": 3452,
      "åĲĮåŃ¦": 3453,
      "çĥ§": 3454,
      "éĩĩåıĸæİªæĸ½": 3455,
      "èĢĹ": 3456,
      "å¤§å¤ļæķ°": 3457,
      "åĵ¥": 3458,
      "åĵ¦": 3459,
      "çĽ¸å¯¹": 3460,
      "ä½Ĩæĺ¯æĪĳ": 3461,
      "¢å¤į": 3462,
      "çī¹å®ļ": 3463,
      "æĴ°": 3464,
      "ï¼ļãĢĬ": 3465,
      "çļĦæ¶": 3466,
      "ç»ıåħ¸": 3467,
      "æī®æ¼Ķ": 3468,
      "åĳĪ": 3469,
      "éĹ®é¢ĺçļĦ": 3470,
      "è¯Ŀé¢ĺ": 3471,
      "äº¤æĺĵ": 3472,
      "å®ĮæĪĲä¸Ģæ®µå¯¹è¯Ŀ": 3473,
      "è·ĳæŃ¥": 3474,
      "æ®Ĭ": 3475,
      "è§Ĵèī²ä¿¡æģ¯å®ĮæĪĲä¸Ģæ®µå¯¹è¯Ŀ": 3476,
      "çļĦæĮĩ": 3477,
      "ä¼ĺç§ĢçļĦ": 3478,
      "æĲľç´¢": 3479,
      "åŁºäºİä»¥ä¸ĭè§Ĵèī²ä¿¡æģ¯å®ĮæĪĲä¸Ģæ®µå¯¹è¯Ŀ": 3480,
      "åĴĮæ²»çĸĹ": 3481,
      "æĻºèĥ½å®¶å±ħ": 3482,
      "éŀĭ": 3483,
      "åģ¥åº·åĴĮ": 3484,
      "çªģçĦ¶": 3485,
      "å®ľ": 3486,
      "æ±Ł": 3487,
      "çļĦæīĭ": 3488,
      "æµĵ": 3489,
      "è¯º": 3490,
      "åĨ¥æĥ³": 3491,
      "çļĦæ²»çĸĹ": 3492,
      "å°½éĩı": 3493,
      "åħħè¶³": 3494,
      "éľĢè¦ģæ³¨æĦı": 3495,
      "æľºéģĩ": 3496,
      "ä»ĸä»¬åľ¨": 3497,
      "ä¸įèī¯": 3498,
      "æ°¸": 3499,
      "è¿ĲçĶ¨": 3500,
      "çļĦæĥħç»ª": 3501,
      "æĢİä¹Īæł·": 3502,
      "å®ŀæĸ½": 3503,
      "å°±ä¼ļ": 3504,
      "å¸®åĬ©æĪĳä»¬": 3505,
      "ä¸ĭéĿ¢çļĦéĹ®é¢ĺ": 3506,
      "å¿ł": 3507,
      "æĤ¦": 3508,
      "çłĶç©¶è¡¨æĺİ": 3509,
      "è¿Ļä¸ªéĹ®é¢ĺçļĦçŃĶæ¡Ī": 3510,
      "æľīäºĽäºº": 3511,
      "åŃ¦æľ¯": 3512,
      "èģªæĺİ": 3513,
      "çĶŁæ´»ä¸ŃçļĦ": 3514,
      "æĺ¯åĽłä¸º": 3515,
      "æµ·å¹³éĿ¢": 3516,
      "èĢĥè¯ķ": 3517,
      "å¹¶ä¸įæĺ¯": 3518,
      "å·¦åı³": 3519,
      "ĽåĽ´": 3520,
      "ç¾İåħĥ": 3521,
      "å£®": 3522,
      "æĪĳå·²ç»ı": 3523,
      "éĺ³åħī": 3524,
      "æĺ¯çĶ±": 3525,
      "éģŃ": 3526,
      "å®ļä¹ī": 3527,
      "25": 3528,
      "æĥ§": 3529,
      "èĲ¨": 3530,
      "æ¥ļ": 3531,
      "çļĦä»»åĬ¡": 3532,
      "çĲĨè®º": 3533,
      "éĻĪ": 3534,
      "åİŁå§ĭ": 3535,
      "å£°éŁ³": 3536,
      "å¦Ļ": 3537,
      "æĤī": 3538,
      "ç³ķ": 3539,
      "æ¸©åº¦": 3540,
      "çĶ·æĢ§": 3541,
      "è·Ŀç¦»": 3542,
      "éĤĢè¯·": 3543,
      "ä¸Ģå¤©": 3544,
      "å½ĵæĹ¶": 3545,
      "æĪĲä¸ºä¸ĢåĲį": 3546,
      "çļĦæ¼": 3547,
      "èĢĮè¨Ģ": 3548,
      "æĬķåħ¥": 3549,
      "è¶³å¤ŁçļĦ": 3550,
      "çļĦè¿ĩç¨ĭ": 3551,
      "èİ·å¾ĹäºĨ": 3552,
      "ç»¼åĲĪ": 3553,
      "è¦ģæ³¨æĦı": 3554,
      "é¡¿": 3555,
      "è®¾æĸ½": 3556,
      "å¿ĥèĦı": 3557,
      "åĲĦåľ°": 3558,
      "ç±»åĪ«": 3559,
      "éĢĤéĩı": 3560,
      "æĬĳéĥģ": 3561,
      "å®½": 3562,
      "ä½łå¯¹": 3563,
      "æĬĢæľ¯åĴĮ": 3564,
      "ä»¥ä¸ĭæĺ¯ä¸Ģæ®µ": 3565,
      "çļĦè¿ĩç¨ĭä¸Ń": 3566,
      "æīĢéľĢ": 3567,
      "Lucy": 3568,
      "Em": 3569,
      "æĪĳä»¬å¿ħé¡»": 3570,
      "çģ¯": 3571,
      "é«ĺåº¦": 3572,
      "æĦıè§ģ": 3573,
      "çī¹æ®Ĭ": 3574,
      "çĳŀ": 3575,
      "æĢģåº¦": 3576,
      "çŁŃæĸĩ": 3577,
      "è¯·ç»ŃåĨĻä»ĸä»¬çļĦå¯¹è¯ĿåĨħå®¹": 3578,
      "æľīè®¸å¤ļ": 3579,
      "çĶŁæ¶¯": 3580,
      "å·¥ä½ľä¸Ń": 3581,
      "èĩªåĬ¨é©¾é©¶": 3582,
      "èĩ³åħ³éĩįè¦ģçļĦ": 3583,
      "è°¨": 3584,
      "è¿ĺèĥ½": 3585,
      "åĿ¦": 3586,
      "æĽ´å¿«": 3587,
      "æĹ¥çĽĬ": 3588,
      "è¶ĬæĿ¥è¶Ĭå¤ļçļĦäºº": 3589,
      "è¯·åĽŀçŃĶä¸ĭéĿ¢çļĦéĹ®é¢ĺ": 3590,
      "è½½": 3591,
      "éħ¸": 3592,
      "çĺ": 3593,
      "ä½łæľīä»Ģä¹Ī": 3594,
      "çŁ¥åĲį": 3595,
      "åħ«": 3596,
      "éĶħ": 3597,
      "çļĦæĻ¯": 3598,
      "å¿«éĢŁåıĳå±ķ": 3599,
      "çĸ²åĬ³": 3600,
      "æıĲéĨĴ": 3601,
      "äº¤å¾Ģ": 3602,
      "æİ¥è§¦": 3603,
      "æĻ®éģį": 3604,
      "çļĦæĢĿç»´": 3605,
      "en": 3606,
      "äº§ä¸ļ": 3607,
      "ä¹Ĳè§Ĥ": 3608,
      "å°¾": 3609,
      "éĩįå¤§": 3610,
      "åı¯ä»¥ä¸º": 3611,
      "æĪ·å¤ĸ": 3612,
      "åħŃ": 3613,
      "å¹ħ": 3614,
      "çĶŁç´ł": 3615,
      "èĬĤå¥ı": 3616,
      "ç«ŀäºīåĬĽ": 3617,
      "æ¦Ĥå¿µ": 3618,
      "åĴĮæĬĢèĥ½": 3619,
      "æĻ®éĢļ": 3620,
      "æĶ¾åľ¨": 3621,
      "åĪĽéĢłåĬĽ": 3622,
      "éĺ¶æ®µ": 3623,
      "çļĦåħ´è¶£": 3624,
      "åģ·": 3625,
      "æ·±è¿ľ": 3626,
      "æ¼Ķåĳĺ": 3627,
      "è¿Ļå°Ĩ": 3628,
      "å®Įç¾İ": 3629,
      "å¤ıå¤©": 3630,
      "èĽĭçĻ½è´¨": 3631,
      "åı¯åĨįçĶŁèĥ½æºĲ": 3632,
      "XXX": 3633,
      "ä½łè§īå¾Ĺ": 3634,
      "å¿ĥæĥħ": 3635,
      "èĻļæĭŁçİ°å®ŀ": 3636,
      "è¿ª": 3637,
      "å·Ŀ": 3638,
      "æīĺ": 3639,
      "ä¼ļå¯¼èĩ´": 3640,
      "åĮĸåŃ¦": 3641,
      "æ¸ħæ´ģ": 3642,
      "çļĦçľŁ": 3643,
      "çĽ¸åºĶ": 3644,
      "é¢ĨåŁŁä¸Ń": 3645,
      "åĮºåĿĹ": 3646,
      "çĲĨè§£åĴĮ": 3647,
      "ç¦»å¼Ģ": 3648,
      "åıĻ": 3649,
      "äººä½ĵ": 3650,
      "çļĦçĶµå½±": 3651,
      "çļĦç½ĳ": 3652,
      "å®ŀçĶ¨": 3653,
      "æĪĳçŁ¥éģĵ": 3654,
      "çļĦæ·": 3655,
      "ä½ľå®¶": 3656,
      "åľºåĲĪ": 3657,
      "çĶ²": 3658,
      "çĿ£": 3659,
      "éķľ": 3660,
      "çļĦæĥħåĨµä¸ĭ": 3661,
      "éĹ®çŃĶ": 3662,
      "æģ¢å¤į": 3663,
      "èĭ±åĽ½": 3664,
      "é¢Ħç®Ĺ": 3665,
      "ä½łæľĢè¿ĳ": 3666,
      "è¾ħ": 3667,
      "æ°Ķæ¸©": 3668,
      "ç¾İåĳ³": 3669,
      "å°¿": 3670,
      "æĽ´ä¸º": 3671,
      "ç®±": 3672,
      "æĸ°éĹ»æĬ¥éģĵ": 3673,
      "åĭĩæ°Ķ": 3674,
      "è¿«": 3675,
      "åĴĮä¸į": 3676,
      "å«Įçĸĳäºº": 3677,
      "ä½Ľ": 3678,
      "çĽĺ": 3679,
      "éģĵè·¯": 3680,
      "å¼ķåıĳ": 3681,
      "èĮ¨": 3682,
      "ck": 3683,
      "ä¸įå¤Ł": 3684,
      "åº¦è¿ĩ": 3685,
      "çļĦæĳĺè¦ģ": 3686,
      "çļĦåıĺåĮĸ": 3687,
      "æĢ§èĥ½": 3688,
      "äºĴçĽ¸": 3689,
      "çļĦæ¢": 3690,
      "å¹¶å°Ĩ": 3691,
      "åı¯ä»¥å¸®åĬ©ä½ł": 3692,
      "æĿĢ": 3693,
      "åĽŀå¤į": 3694,
      "éĿ¢ä¸´çĿĢ": 3695,
      "çīĻ": 3696,
      "æ¸¸æ³³": 3697,
      "äººä»¬å¯¹": 3698,
      "äººå·¥æĻºèĥ½çļĦ": 3699,
      "çļĦæĻ®": 3700,
      "åĴĮæĬĢæľ¯": 3701,
      "éĢĥ": 3702,
      "æī¾åĪ°äºĨ": 3703,
      "çĶŁæĪĲä¸Ģç¯ĩ": 3704,
      "Ġè¿Ļ": 3705,
      "æĭĸ": 3706,
      "åį°è±¡": 3707,
      "łéģĵ": 3708,
      "éĥ½åľ¨": 3709,
      "é¡¶": 3710,
      "ä¸»è¦ģåĨħå®¹": 3711,
      "å¿ĹæĦ¿": 3712,
      "éĩĩåıĸè¡ĮåĬ¨": 3713,
      "èĤº": 3714,
      "æĺ¾èĳĹ": 3715,
      "å½ĵçĦ¶åı¯ä»¥": 3716,
      "æĮ«æĬĺ": 3717,
      "æĹ¥æľŁ": 3718,
      "æĽ´æĸ°": 3719,
      "è¶ĬæĿ¥è¶Ĭå¤ļçļĦ": 3720,
      "åĽ¢éĺŁåĲĪä½ľ": 3721,
      "æ¼Ķè®²": 3722,
      "æŀģç«¯": 3723,
      "çķĻä¸ĭ": 3724,
      "å®«": 3725,
      "åĮºåĿĹéĵ¾": 3726,
      "æł¹æį®ä»¥ä¸Ĭè¿Ļæ®µ": 3727,
      "å¤§éĩıçļĦ": 3728,
      "è²Į": 3729,
      "ä¸ĢçĤ¹": 3730,
      "èĪ¹": 3731,
      "åĵªéĩĮ": 3732,
      "æ°§åĮĸ": 3733,
      "åı¯è¡Į": 3734,
      "éĻĦ": 3735,
      "åħ¬ä¼Ĺ": 3736,
      "ä¸İåħ¶ä»ĸ": 3737,
      "è¿ŀæİ¥": 3738,
      "åı¦ä¸Ģ": 3739,
      "æ©": 3740,
      "æĥ³è±¡": 3741,
      "ä¼Ļä¼´": 3742,
      "æĪĳçĽ¸ä¿¡": 3743,
      "æĭĽèģĺ": 3744,
      "æĶ»åĩ»": 3745,
      "çŀ": 3746,
      "å¤ªéĺ³èĥ½": 3747,
      "è´Ŀ": 3748,
      "åĲĮæĦı": 3749,
      "é¢Ĩå¯¼èĢħ": 3750,
      "æĺ¯å¦Ĥä½ķ": 3751,
      "ä»¥åĲİ": 3752,
      "âĢ¦": 3753,
      "æĻºæħ§": 3754,
      "æŃ£æĸĩ": 3755,
      "å°ĳå¹´": 3756,
      "ä¿ĿæĮģåģ¥åº·": 3757,
      "åľ£": 3758,
      "å¯¹æĪĳä»¬çļĦ": 3759,
      "çĤİ": 3760,
      "å¤§åŀĭ": 3761,
      "åĪĨåĪ«": 3762,
      "æĪĳå¸ĮæľĽ": 3763,
      "è¡¨éĿ¢": 3764,
      "åĵ²": 3765,
      "å°±åı¯ä»¥": 3766,
      "å®ĥåı¯ä»¥": 3767,
      "æŃ£éĿ¢": 3768,
      "ï¼īãĢĤ": 3769,
      "éº»": 3770,
      "æĥł": 3771,
      "å¦Ĥä»Ĭ": 3772,
      "åīįå¾Ģ": 3773,
      "çļĦæİªæĸ½": 3774,
      "éĢĤåĲĪèĩªå·±çļĦ": 3775,
      "çļĦåĲĮæĹ¶": 3776,
      "ç¾İä¸½çļĦ": 3777,
      "ç¼ºçĤ¹": 3778,
      "å¹ķ": 3779,
      "æķ°æį®éĽĨ": 3780,
      "æĪĲåĬŁåľ°": 3781,
      "çļĦè¯Ńè¨Ģ": 3782,
      "èĦļ": 3783,
      "å®ĮåĸĦ": 3784,
      "å¤ļæł·æĢ§": 3785,
      "çļĦçĸ": 3786,
      "éĿ¢è¯ķ": 3787,
      "åĴĮç»ıéªĮ": 3788,
      "åŃ¦ä¹łæĸ°": 3789,
      "å®¶éķ¿": 3790,
      "çļĦæ°Ķ": 3791,
      "è´§å¸ģ": 3792,
      "çĪ±çļĦ": 3793,
      "çº½": 3794,
      "æĪĳè¿ĺ": 3795,
      "åľ¨ä¸ŃåĽ½": 3796,
      "è®©äººä»¬": 3797,
      "ä¿ĿæĬ¤çİ¯å¢ĥ": 3798,
      "æ¸ħæ¥ļ": 3799,
      "çļĦæ¶Ī": 3800,
      "çļĦæł¸": 3801,
      "çļĦè®¡åĪĴ": 3802,
      "é¢Ĺ": 3803,
      "èĩªä¸»": 3804,
      "éħ±": 3805,
      "åı¯ä»¥å¸®åĬ©äººä»¬": 3806,
      "çħ®": 3807,
      "æĹłè®ºæĺ¯": 3808,
      "åĨħéĥ¨": 3809,
      "åı£è¯Ń": 3810,
      "æ¢¦æĥ³": 3811,
      "èµ¢å¾Ĺ": 3812,
      "é¹": 3813,
      "æľīçĽĬ": 3814,
      "æĪĳä»¬åħ¬åı¸": 3815,
      "çļĦç©": 3816,
      "åĮĸåĴĮ": 3817,
      "å¿½è§Ĩ": 3818,
      "çļĦç¨ĭ": 3819,
      "åīĤ": 3820,
      "æİ¥ä¸ĭæĿ¥": 3821,
      "çĶ³è¯·": 3822,
      "çĶŁæĪĲä¸Ģæ®µä»ĸä»¬çļĦå¯¹è¯ĿåĨħå®¹": 3823,
      "åıĳæĺİ": 3824,
      "çļĦè¡Įä¸º": 3825,
      "åĶ±": 3826,
      "åĵªä¸ª": 3827,
      "çļĦæĬĢå·§": 3828,
      "åĴĮå»ºè®®": 3829,
      "å¤§æķ°æį®": 3830,
      "è¿ľç¨ĭ": 3831,
      "Mar": 3832,
      "çĽ¸åĲĮ": 3833,
      "æ¨¡æĭŁ": 3834,
      "è¯¸": 3835,
      "åŃ¦ç§ĳ": 3836,
      "çĶµæ±ł": 3837,
      "å¹³æĹ¶": 3838,
      "ç§°ä¸º": 3839,
      "ä¸¤äººçļĦ": 3840,
      "å®Įæķ´": 3841,
      "å°¤åħ¶æĺ¯": 3842,
      "çĪ¶æ¯į": 3843,
      "çļĦæĸĩåĮĸ": 3844,
      "å¯¿": 3845,
      "åĮ»çĸĹä¿Ŀåģ¥": 3846,
      "çłĶåıĳ": 3847,
      "æ¹ĸ": 3848,
      "è®²è¿°äºĨ": 3849,
      "åıĺå¾Ĺè¶ĬæĿ¥è¶Ĭ": 3850,
      "çļĦçŁŃ": 3851,
      "è¿ĩäºİ": 3852,
      "æĦıå¤§åĪ©": 3853,
      "çļĦæ¢¦": 3854,
      "ä¹±": 3855,
      "åıĺéĿ©": 3856,
      "ä¸Ģç»Ħ": 3857,
      "ä¸įå¥½": 3858,
      "æľīæĹ¶": 3859,
      "çļĦæĦŁè§ī": 3860,
      "çĿĽ": 3861,
      "åĮºåŁŁ": 3862,
      "çļĦæ±": 3863,
      "æµģçķħ": 3864,
      "çĽĳç®¡": 3865,
      "æµ·å¹³éĿ¢ä¸Ĭåįĩ": 3866,
      "çļĦåı¥åŃĲ": 3867,
      "ä»¥åīį": 3868,
      "çºł": 3869,
      "çĸ¼": 3870,
      "é¥°": 3871,
      "èĬ³": 3872,
      "çĽ´åĪ°": 3873,
      "èģĮä¸ļçĶŁæ¶¯": 3874,
      "çľĭåĪ°äºĨ": 3875,
      "åĪĹè¡¨": 3876,
      "ä¼Ł": 3877,
      "æŃ¦": 3878,
      "è½®": 3879,
      "æĪĲä¸ºä¸Ģä¸ª": 3880,
      "æ¿ĢåĬ±": 3881,
      "çļĦä¸ľè¥¿": 3882,
      "ç«Ł": 3883,
      "æĬĢæľ¯çļĦåıĳå±ķ": 3884,
      "çļĦæĦıè§ģ": 3885,
      "éĩįå¤į": 3886,
      "éĻ¤æŃ¤": 3887,
      "çļĦéĢīæĭ©": 3888,
      "åĲįä¸º": 3889,
      "ä¿¡å¿ĥ": 3890,
      "åĲ¬èµ·æĿ¥å¾Ī": 3891,
      "ç»ĦæĪĲéĥ¨åĪĨ": 3892,
      "æĪĺçķ¥": 3893,
      "ï¼īï¼ļ": 3894,
      "èĬ±è´¹": 3895,
      "è®¾å®ļ": 3896,
      "çļĦæ¼Ķ": 3897,
      "çļĦéŁ³ä¹Ĳ": 3898,
      "çļĦç¼ĸ": 3899,
      "æ³Ħ": 3900,
      "åĪ°è¾¾": 3901,
      "å°ıå¼ł": 3902,
      "åı¯æĺ¯": 3903,
      "æĤ¨éľĢè¦ģ": 3904,
      "çĪĨ": 3905,
      "æĦŁè°¢æĤ¨": 3906,
      "ä¼ļå¯¹": 3907,
      "åŃ©åŃĲä»¬": 3908,
      "å¼ºçĥĪ": 3909,
      "å§ĭç»Ī": 3910,
      "ä¼ĺåħĪ": 3911,
      "åĴĮçĲĨè§£": 3912,
      "ä¸ŃæľĢ": 3913,
      "å¤ļå¹´": 3914,
      "Ġä½łå¥½": 3915,
      "ä»°": 3916,
      "éĻĨ": 3917,
      "æ¡£": 3918,
      "åıĤè§Ĥ": 3919,
      "æ½": 3920,
      "æĪĳä»¬åľ¨": 3921,
      "ä¼łç»ŁçļĦ": 3922,
      "æ¿ĢçĥĪ": 3923,
      "çļĦæ¦Ĥ": 3924,
      "ç¾İå¥½": 3925,
      "çļĦæł¸å¿ĥ": 3926,
      "éĻ¤æŃ¤ä¹ĭå¤ĸ": 3927,
      "ä¸įåĪ°": 3928,
      "éĹŃ": 3929,
      "ä»Ģä¹Īæĺ¯": 3930,
      "æĺ¯ä¸Ģéĥ¨": 3931,
      "çĥ¦": 3932,
      "åħħæ»¡äºĨ": 3933,
      "æĸ°åŀĭ": 3934,
      "åŁºåĽł": 3935,
      "æĢ»çļĦ": 3936,
      "è¯¢éĹ®": 3937,
      "åĽ½åĨħ": 3938,
      "éª¨": 3939,
      "ä¸¥æł¼": 3940,
      "è¿ĩå¤ļ": 3941,
      "åŃ¦å®¶": 3942,
      "çŃīæĸ¹å¼ı": 3943,
      "åĽ¢éĺŁæĪĲåĳĺ": 3944,
      "40": 3945,
      "çİī": 3946,
      "åı¦ä¸Ģä¸ª": 3947,
      "çļĦä¸ĸçķĮ": 3948,
      "è®¾ç½®": 3949,
      "çļĦç¥ŀ": 3950,
      "ä¹ĺ": 3951,
      "åİ¨": 3952,
      "åľ¨è¿Ļ": 3953,
      "æľºåĪ¶": 3954,
      "åıªèĥ½": 3955,
      "åĳ³éģĵ": 3956,
      "åĳĪçİ°": 3957,
      "è´¯": 3958,
      "æķĻç»ĥ": 3959,
      "çłĶç©¶äººåĳĺ": 3960,
      "å¤ªéĺ³ç³»": 3961,
      "çĩĥæĸĻ": 3962,
      "ä¹¡": 3963,
      "èĢħçļĦ": 3964,
      "èĢĲå¿ĥ": 3965,
      "Ġæĺ¯çļĦ": 3966,
      "è°±": 3967,
      "è´¨éĩıåĴĮ": 3968,
      "åı¤èĢģ": 3969,
      "è¡£æľį": 3970,
      "é«ĺä¸Ń": 3971,
      "çĽĽ": 3972,
      "æ¶²": 3973,
      "é¤ĲåİħèĢģæĿ¿": 3974,
      "ä¸»åĬ¨": 3975,
      "èĥ¡": 3976,
      "æĶ¹åıĺäºĨ": 3977,
      "æĢ»çļĦæĿ¥è¯´": 3978,
      "ä¸įéĢĤ": 3979,
      "å®ŀä¹ł": 3980,
      "çĽ¸æ¯Ķ": 3981,
      "äººç±»æ´»åĬ¨": 3982,
      "ä¸ŃçļĦåºĶçĶ¨": 3983,
      "åıĮæĸ¹": 3984,
      "çļĦçĹħ": 3985,
      "æĿ¥å®ŀçİ°": 3986,
      "çĶµè¯Ŀ": 3987,
      "å¸Ĥåľºä¸Ĭ": 3988,
      "ĪåĸĦ": 3989,
      "æĺ¯æľĢ": 3990,
      "å°ıåįİ": 3991,
      "ç¡¬": 3992,
      "å¼ķå¯¼": 3993,
      "çģŃ": 3994,
      "åĶ¯": 3995,
      "éģµå¾ª": 3996,
      "èķ": 3997,
      "æıĲé«ĺèĩªå·±çļĦ": 3998,
      "ä¸įå°ĳ": 3999,
      "å¹¿æ³ĽåºĶçĶ¨": 4000,
      "çļĦæĶ¹": 4001,
      "å¾Īå¥½çļĦ": 4002,
      "ç»ĵæĿŁ": 4003,
      "æĭĵå±ķ": 4004,
      "æĢİä¹ĪåĬŀ": 4005,
      "åĹ¨": 4006,
      "å¥½å¥ĩ": 4007,
      "æĸ°äº§åĵģ": 4008,
      "çľĭäºĨ": 4009,
      "éĽĦ": 4010,
      "æĦīå¿«": 4011,
      "æķĻåŃ¦": 4012,
      "çļĦæķĪæŀľ": 4013,
      "ç«ŀäºīå¯¹æīĭ": 4014,
      "æĦŁæŁĵ": 4015,
      "ç¯®çĲĥ": 4016,
      "æħİ": 4017,
      "éħĴåºĹ": 4018,
      "ç¾¤ä½ĵ": 4019,
      "åıĬåħ¶": 4020,
      "çĶ·åŃ©": 4021,
      "æ¶īåıĬåĪ°": 4022,
      "åĲİæĿ¥": 4023,
      "æľŁæľĽ": 4024,
      "ä¾ĭåŃĲ": 4025,
      "çļĦç¾İé£Ł": 4026,
      "èº«è¾¹": 4027,
      "åľ°ä½į": 4028,
      "çº·": 4029,
      "æıĲä¾ĽçļĦ": 4030,
      "ä¼łè¾¾": 4031,
      "æĹ¶éĹ´ç®¡çĲĨ": 4032,
      "è§ĦèĮĥ": 4033,
      "ç»ıéªĮä¸°å¯ĮçļĦ": 4034,
      "ç»´çĶŁç´ł": 4035,
      "è¯ŃéŁ³è¯ĨåĪ«": 4036,
      "ä¼Ĭ": 4037,
      "ä¾µ": 4038,
      "åıįæĺł": 4039,
      "ç»ıèĲ¥": 4040,
      "ç»ĻäºĪ": 4041,
      "ä»İä¸Ń": 4042,
      "åĪºæ¿Ģ": 4043,
      "11": 4044,
      "åıĹä¼Ĺ": 4045,
      "èĦī": 4046,
      "æĺ¯åĲ¦æľī": 4047,
      "è¾£": 4048,
      "çķª": 4049,
      "ä¾¿æį·": 4050,
      "å®ŀéĻħä¸Ĭ": 4051,
      "æĹ§": 4052,
      "çī¹åĪ«æĺ¯": 4053,
      "æĢª": 4054,
      "æĥľ": 4055,
      "çŃīå¾ħ": 4056,
      "èº«å¿ĥåģ¥åº·": 4057,
      "ä½ĵéĩį": 4058,
      "éĩĮçļĦ": 4059,
      "çļĦæģ": 4060,
      "æ³°": 4061,
      "æĥĳ": 4062,
      "ç§ĳå¹»": 4063,
      "éĩĮéĿ¢": 4064,
      "è§Ĩä¸º": 4065,
      "çļĦæ¢¦æĥ³": 4066,
      "æĿ¥çľĭ": 4067,
      "éĢĤå½ĵçļĦ": 4068,
      "æĽ´é«ĺ": 4069,
      "GP": 4070,
      "æĪĲäºĨ": 4071,
      "æŀĦå»º": 4072,
      "æŁĲä¸ª": 4073,
      "ä¿ĿæĮģç§¯æŀģ": 4074,
      "çĶ·åŃĲ": 4075,
      "ä»Ķ": 4076,
      "åķĨäºº": 4077,
      "çļĦæıı": 4078,
      "æ··åĲĪ": 4079,
      "sa": 4080,
      "èī²çļĦ": 4081,
      "åºĶè¯¥æĺ¯": 4082,
      "åĭ¤": 4083,
      "çº½çº¦": 4084,
      "è¦Ĩ": 4085,
      "çĶµåĬ¨": 4086,
      "è¯ķè¯ķ": 4087,
      "å¤ªå¤ļ": 4088,
      "æķ£æŃ¥": 4089,
      "æĸĩç«łåĨħå®¹": 4090,
      "æ¶Īæŀģ": 4091,
      "ä»¿": 4092,
      "éĩİçĶŁ": 4093,
      "éĢĶå¾Ħ": 4094,
      "çļĦæ¸¸æĪı": 4095,
      "å¸®åĬ©ä½ł": 4096,
      "åİ»äºĨ": 4097,
      "åģļåĪ°": 4098,
      "éĺ²æŃ¢": 4099,
      "çľŁæŃ£çļĦ": 4100,
      "ä¸Ģå°ģ": 4101,
      "æĦŁæ¿Ģ": 4102,
      "è®¤è¯ĨåĪ°": 4103,
      "è¿Ļä½į": 4104,
      "æ³¡": 4105,
      "åı£åĳ³": 4106,
      "ä¸§": 4107,
      "çļĦä¸Ģç§į": 4108,
      "æĸĩæĺİ": 4109,
      "æ¤Ĵ": 4110,
      "ç©¿çĿĢ": 4111,
      "åĢ¾åĲ¬": 4112,
      "åı¯ä»¥ä½¿çĶ¨": 4113,
      "éº¦": 4114,
      "æ¾": 4115,
      "è®¤åı¯": 4116,
      "è±ª": 4117,
      "çİĩåĴĮ": 4118,
      "ä¼¤å®³": 4119,
      "èģĬå¤©": 4120,
      "çĬ¯ç½ª": 4121,
      "ä½łä¼ļ": 4122,
      "çĬ¬": 4123,
      "çļĦç©º": 4124,
      "ä¹Ķ": 4125,
      "ä¸įåĨį": 4126,
      "000": 4127,
      "åĴĮåºĶçĶ¨": 4128,
      "æīĢåľ¨": 4129,
      "åı¯èĥ½ä¼ļå¯¼èĩ´": 4130,
      "çĽĳæµĭ": 4131,
      "æģĭ": 4132,
      "çĽĳçĿ£": 4133,
      "çĶľ": 4134,
      "æľīçĶ¨": 4135,
      "å±ķå¼Ģ": 4136,
      "æ¡Īä»¶": 4137,
      "èĤĮèĤī": 4138,
      "åħĪè¿Ľ": 4139,
      "ä¸ªæĢ§åĮĸ": 4140,
      "çļĦåŁİå¸Ĥ": 4141,
      "æľªçŁ¥": 4142,
      "åħ´å¥ĭ": 4143,
      "ä¸ĭéĿ¢è¿Ļæ®µæĸĩç«ł": 4144,
      "åıĻè¿°": 4145,
      "ï¼ĮâĢľ": 4146,
      "åĽŀå®¶": 4147,
      "èı²": 4148,
      "åľºæīĢ": 4149,
      "é¥¼": 4150,
      "å²Ĺ": 4151,
      "å°¿çĹħ": 4152,
      "çļĦçĬ": 4153,
      "è¿ĲåĬ¨åĳĺ": 4154,
      "ç§ĳåŃ¦å®¶ä»¬": 4155,
      "æľĢéĩįè¦ģçļĦæĺ¯": 4156,
      "æĺ¯äººç±»": 4157,
      "æĪĳåĸľæ¬¢": 4158,
      "ä½łæľī": 4159,
      "å¾Īå¤§çļĦ": 4160,
      "è®©èĩªå·±": 4161,
      "å§ĵ": 4162,
      "é£İæĻ¯": 4163,
      "èģĮä¸ļåıĳå±ķ": 4164,
      "åįıè°ĥ": 4165,
      "ä¸Ģç³»åĪĹ": 4166,
      "ä¸įçĶ¨": 4167,
      "å¤§åŃ¦çĶŁ": 4168,
      "æĮĳæĪĺåĴĮ": 4169,
      "åĨ·éĿĻ": 4170,
      "çļĦæĻ®åıĬ": 4171,
      "å¥½åĥı": 4172,
      "è´¦": 4173,
      "åĵģç§į": 4174,
      "æģĴ": 4175,
      "æķĻå¸Ī": 4176,
      "åħ¨çĲĥèĮĥåĽ´åĨħ": 4177,
      "Jack": 4178,
      "éĢĬ": 4179,
      "èĥ½å¤Łåľ¨": 4180,
      "è¡¨è¾¾äºĨ": 4181,
      "éĿĴå°ĳå¹´": 4182,
      "åĲī": 4183,
      "ä¸Ĭæµ·": 4184,
      "æĸĩç«łçļĦ": 4185,
      "åĴĮåĪĨæŀĲ": 4186,
      "èĢ³": 4187,
      "æĪĺäºī": 4188,
      "è§Ĩéĩİ": 4189,
      "éĢłæĪĲäºĨ": 4190,
      "éģµå®Ī": 4191,
      "ä¹Łè®¸": 4192,
      "çĨŁæĤī": 4193,
      "çļĦæĻºèĥ½": 4194,
      "æıŃ": 4195,
      "æįķ": 4196,
      "è½¬åĮĸ": 4197,
      "ä¸Ģä½įå¹´è½»çļĦ": 4198,
      "éĩįæĸ°æ¶¦èī²ä¸ĭéĿ¢è¿Ļæ®µæĸĩç«ł": 4199,
      "å¸®æĪĳéĩįæĸ°æ¶¦èī²ä¸ĭéĿ¢è¿Ļæ®µæĸĩç«ł": 4200,
      "èµĭ": 4201,
      "æĺ¯ä¸ª": 4202,
      "åĩĢ": 4203,
      "åĬłéĢŁ": 4204,
      "è¢ĸ": 4205,
      "ç§¯ç´¯": 4206,
      "æĿİèĢģå¸Ī": 4207,
      "æī©å±ķ": 4208,
      "çļĦæ¯Ķ": 4209,
      "16": 4210,
      "æĪĲåĪĨ": 4211,
      "æ»ĳ": 4212,
      "å¡ŀ": 4213,
      "èĤ¯å®ļ": 4214,
      "æ¶µçĽĸ": 4215,
      "åĴĮå®īåħ¨": 4216,
      "è¡¨çİ°åĩº": 4217,
      "å¯Ĩçłģ": 4218,
      "è¦ģæľī": 4219,
      "éĽħ": 4220,
      "åĽ°å¢ĥ": 4221,
      "æĻ®åıĬ": 4222,
      "çļĦç®Ģ": 4223,
      "è¿Ļæľ¬ä¹¦": 4224,
      "èĮĦ": 4225,
      "é¥®æĸĻ": 4226,
      "æ´ª": 4227,
      "å®ŀä½ĵ": 4228,
      "çĪ¸": 4229,
      "çļĦæĳĦ": 4230,
      "çļĦç¨ĭåºı": 4231,
      "åħ¶ä¸ŃçļĦ": 4232,
      "ä½Ĩä¹Ł": 4233,
      "èĥĸ": 4234,
      "ä¸įä»ħåı¯ä»¥": 4235,
      "ç³ĸå°¿çĹħ": 4236,
      "çļĦé¢ĨåŁŁ": 4237,
      "åĩºè¡Į": 4238,
      "éĺĶ": 4239,
      "ä¸¤äºº": 4240,
      "ä»¥ä¸ĭæĺ¯ä¸Ģç¯ĩ": 4241,
      "å¿łè¯ļ": 4242,
      "ä½ĵçİ°": 4243,
      "æĺ¯ä¸Ģå®¶": 4244,
      "èĥŀ": 4245,
      "è´¹çĶ¨": 4246,
      "ä¹Ĳè¶£": 4247,
      "åıĳçİ°äºĨ": 4248,
      "åĲĪéĢĤçļĦ": 4249,
      "åľ¨è¿ĻéĩĮ": 4250,
      "å±ĭ": 4251,
      "èµĦæ·±": 4252,
      "åŁİå¸ĤçļĦ": 4253,
      "å¹´ä»£": 4254,
      "èĬĤæĹ¥": 4255,
      "éļ¾é¢ĺ": 4256,
      "æĭħä»»": 4257,
      "åĴĮåŃ¦ä¹ł": 4258,
      "å±ı": 4259,
      "é«ĺè´¨éĩı": 4260,
      "æĦīæĤ¦": 4261,
      "å·§åħĭ": 4262,
      "è´¢å¯Į": 4263,
      "æĪĳä¸į": 4264,
      "å¼ºå¤§": 4265,
      "åħ±äº«": 4266,
      "è§ĤçĤ¹åĴĮ": 4267,
      "æĭĸå»¶": 4268,
      "çļĦæīĢ": 4269,
      "ä¸Ģæ¬¾": 4270,
      "æĪĳä»¬ä¹Ł": 4271,
      "é¢ĺä¸»": 4272,
      "æľºåĻ¨ç¿»è¯ĳ": 4273,
      "è¿ĲèĲ¥": 4274,
      "å¯Įæľī": 4275,
      "åºĨç¥Ŀ": 4276,
      "ä¸¤äººçļĦå¯¹è¯ĿåĨħå®¹": 4277,
      "ä½Ĩåľ¨": 4278,
      "åıĸä»£": 4279,
      "ä»¥ä¸ĭæĺ¯ä¸Ģæ®µä¸¤äººçļĦå¯¹è¯ĿåĨħå®¹": 4280,
      "çĶŁéķ¿": 4281,
      "åıįæĢĿ": 4282,
      "ä¸Ģå®ļçļĦ": 4283,
      "æĺ¯ä¸įæĺ¯": 4284,
      "ç»ıéªĮä¸°å¯Į": 4285,
      "çļĦæ¸©": 4286,
      "æĪĳæŃ£åľ¨": 4287,
      "è¡Ģç®¡": 4288,
      "æĬĵ": 4289,
      "å¤§èĩªçĦ¶": 4290,
      "ç¤¾ä¼ļçļĦ": 4291,
      "çĮİ": 4292,
      "ä»ĺåĩº": 4293,
      "IT": 4294,
      "å¾Ĺåĩº": 4295,
      "ä¾ĽåºĶ": 4296,
      "æĹ¶åħī": 4297,
      "å°Ĩä»¥ä¸ĭ": 4298,
      "ä¸ĢäºĽéĹ®é¢ĺ": 4299,
      "èº«ä»½": 4300,
      "ç®ĢçŁŃ": 4301,
      "å±ķç¤ºäºĨ": 4302,
      "æ²¿": 4303,
      "å¾Īéĩįè¦ģ": 4304,
      "ke": 4305,
      "å¹³åĿĩ": 4306,
      "ä¸ĥ": 4307,
      "çĽ¾": 4308,
      "æĸ°æĬĢæľ¯": 4309,
      "ä½Ĩä»ĸ": 4310,
      "èĴĤ": 4311,
      "å°±èĥ½": 4312,
      "æĪĳä»¬çļĦäº§åĵģ": 4313,
      "ç®ĢåįķçļĦ": 4314,
      "çļĦæ·±": 4315,
      "ä¿Ĺ": 4316,
      "ç§įç±»": 4317,
      "ä½Ĩå®ĥ": 4318,
      "ä»İäºĭ": 4319,
      "ä¿¡æģ¯åĴĮ": 4320,
      "le": 4321,
      "åľ¨æĪĳ": 4322,
      "æĢ§æł¼": 4323,
      "çľĭå¾ħ": 4324,
      "çļĦæĢĿèĢĥ": 4325,
      "å¼¹": 4326,
      "äººå·¥æĻºèĥ½æĬĢæľ¯çļĦ": 4327,
      "çļĦæĦŁåıĹ": 4328,
      "ä¸ĢåĪĩ": 4329,
      "åĲĪåĲĮ": 4330,
      "é£ŁçĶ¨": 4331,
      "æ¡¥": 4332,
      "æĢ»ç»ĵåħ¶": 4333,
      "è½¬åŀĭ": 4334,
      "åħ¬åħ±äº¤éĢļ": 4335,
      "åİĤ": 4336,
      "åħ³å¿ĥ": 4337,
      "æ¸łéģĵ": 4338,
      "è¿Ļæ¬¾": 4339,
      "æł·çļĦ": 4340,
      "æĶ¶åħ¥": 4341,
      "å¤ĩåıĹ": 4342,
      "æııè¿°äºĨ": 4343,
      "é²ģ": 4344,
      "è¢«è®¤ä¸ºæĺ¯": 4345,
      "äººåı£": 4346,
      "ä»¥æıĲé«ĺ": 4347,
      "åĩ¯": 4348,
      "æľ¬èº«": 4349,
      "å¼Ģå±ķ": 4350,
      "å¦Ĥä½ķæıĲé«ĺ": 4351,
      "ç½ĳä¸Ĭ": 4352,
      "æİ¨è¿Ľ": 4353,
      "ï¼ļï¼Ī": 4354,
      "åįĵ": 4355,
      "ä¸ĭåįĪ": 4356,
      "è¢«å¹¿æ³Ľ": 4357,
      "é¥®é£ŁåĴĮ": 4358,
      "çļĦä¸į": 4359,
      "æĪĳå»ºè®®": 4360,
      "éļĶ": 4361,
      "èıĮ": 4362,
      "åĵ²åŃ¦": 4363,
      "èµĦæĸĻ": 4364,
      "å²¸": 4365,
      "åĵĪåĪ©": 4366,
      "æĪĳä¸ĢçĽ´": 4367,
      "æĺĵäºİ": 4368,
      "ç´§æĢ¥": 4369,
      "----": 4370,
      "éĶĢåĶ®é¢Ŀ": 4371,
      "åģ¥èº«æĪ¿": 4372,
      "am": 4373,
      "å°ıèĬ³": 4374,
      "å®³æĢķ": 4375,
      "å¹²æī°": 4376,
      "æĹ¥å¸¸çĶŁæ´»": 4377,
      "çļĦè¯Ŀé¢ĺ": 4378,
      "æĺ¨": 4379,
      "å¿½çķ¥": 4380,
      "17": 4381,
      "åħĶ": 4382,
      "æĺ¯éĿŀå¸¸éĩįè¦ģçļĦ": 4383,
      "æĮº": 4384,
      "æĹłäºº": 4385,
      "åİĨåı²ä¸Ĭ": 4386,
      "ä¼łéĢĴ": 4387,
      "å¯¼èĩ´äºĨ": 4388,
      "çĶµåŃĲåķĨåĬ¡": 4389,
      "é»ĳæ´ŀ": 4390,
      "çļĦæľªæĿ¥": 4391,
      "æĺ¯ä¸ºäºĨ": 4392,
      "æĸ°åħ´": 4393,
      "ç§Ł": 4394,
      "å®ļä½į": 4395,
      "äº¤äºĴ": 4396,
      "åıĤèĢĥ": 4397,
      "å®ĮæĪĲä»»åĬ¡": 4398,
      "ç½ĳç»ľå®īåħ¨": 4399,
      "æĿ¥çļĦ": 4400,
      "çļĦå¥½å¤Ħ": 4401,
      "çļĦæŀ": 4402,
      "æı´": 4403,
      "åĽŀæĶ¶": 4404,
      "èıľåĵģ": 4405,
      "æĽ¿ä»£": 4406,
      "çļĦçĭ¬": 4407,
      "æħĪåĸĦ": 4408,
      "åĪĨç±»ä¸º": 4409,
      "è¹": 4410,
      "åĴĮçĽ®æłĩ": 4411,
      "åħ¶ä¸ŃåĮħæĭ¬": 4412,
      "¹é¥": 4413,
      "ç»ķ": 4414,
      "ä¸İäºº": 4415,
      "è¯¥åħ¬åı¸": 4416,
      "æĳĨ": 4417,
      "æīĵéĢł": 4418,
      "çļĦçĹĩ": 4419,
      "Lisa": 4420,
      "¹é¥ª": 4421,
      "å¯¹æĪĳä»¬": 4422,
      "ç¨¿": 4423,
      "åī¯": 4424,
      "æĪĳä»¬åı¯ä»¥éĢļè¿ĩ": 4425,
      "æ¬§æ´²": 4426,
      "or": 4427,
      "åĮĸçŁ³": 4428,
      "æķĻæİĪ": 4429,
      "åĲ¬åĪ°": 4430,
      "æĦĪ": 4431,
      "å¥½å¥½": 4432,
      "çĤ¸": 4433,
      "èĻ«": 4434,
      "åĪĻæĺ¯": 4435,
      "çģµæĦŁ": 4436,
      "å¾ªçİ¯": 4437,
      "æĺİçĻ½äºĨ": 4438,
      "åĴĮæĥħæĦŁ": 4439,
      "æĪ¿éĹ´": 4440,
      "æ¦": 4441,
      "çļĦæĪĲåĬŁ": 4442,
      "çļĦå¸Ĥåľº": 4443,
      "åĴĮé«ĺ": 4444,
      "è¿Ļä¹Ł": 4445,
      "èīºæľ¯å®¶": 4446,
      "çļĦçĹĩçĬ¶": 4447,
      "ä¸ºæĪĳä»¬": 4448,
      "ä¿¡ä»°": 4449,
      "å²Ĺä½į": 4450,
      "ç»ĻæĪĳä»¬": 4451,
      "è¿ĻäºĽæĸ¹æ³ķ": 4452,
      "å§¿": 4453,
      "æ¯ıæ¬¡": 4454,
      "çĶ¨æĿ¥": 4455,
      "çļĦç´": 4456,
      "ä½¿æĪĳä»¬": 4457,
      "è®©ä»ĸä»¬": 4458,
      "æ¦Ĥæĭ¬": 4459,
      "é¡ºåºı": 4460,
      "åĪĨæĪĲ": 4461,
      "çĽ®æłĩåĴĮ": 4462,
      "æģĲæĥ§": 4463,
      "åĴĮè°": 4464,
      "ä½łçļĦå»ºè®®": 4465,
      "åī§æĥħ": 4466,
      "å®£å¸ĥ": 4467,
      "ä¸ĸçķĮä¸ĬæľĢ": 4468,
      "ä¸Ĭä¸ĭ": 4469,
      "å¹¶ä¸İ": 4470,
      "æ³ķåĽ½": 4471,
      "æ¯ıå¹´": 4472,
      "å¦ĤæŀľæĪĳä»¬": 4473,
      "åĬŀæ³ķ": 4474,
      "Ġ1": 4475,
      "çļĦç»ĵæŀľ": 4476,
      "æ¬²": 4477,
      "è¿ĺè¦ģ": 4478,
      "åŃ¦çĶŁçļĦ": 4479,
      "é¡ºåĪ©": 4480,
      "ä¸Ńå¹´": 4481,
      "è°Ĭ": 4482,
      "åŃĲçļĦ": 4483,
      "é¢Ĩè¢ĸ": 4484,
      "ä¼ĳéĹ²": 4485,
      "ma": 4486,
      "èĥ½åĲ¦": 4487,
      "æŃī": 4488,
      "è°ĥèĬĤ": 4489,
      "çľ¼çĿĽ": 4490,
      "èĸª": 4491,
      "åĴĮçİ¯å¢ĥ": 4492,
      "éĻª": 4493,
      "åıĹåĪ°äºĨ": 4494,
      "èİ±": 4495,
      "åįıåĬ©": 4496,
      "åľ¨æŃ¤": 4497,
      "è¿Ļä¸¤": 4498,
      "éĺ»": 4499,
      "æī¾åĩº": 4500,
      "éªĹ": 4501,
      "æıĲé«ĺäºĨ": 4502,
      "è§Ħå®ļ": 4503,
      "æĴ°åĨĻ": 4504,
      "æ·±è¿ľçļĦå½±åĵį": 4505,
      "æľĢåĸľæ¬¢çļĦ": 4506,
      "çĤĴ": 4507,
      "è¿ĺä¼ļ": 4508,
      "éĩıåŃĲ": 4509,
      "æŃ»äº¡": 4510,
      "å®Ĺ": 4511,
      "è¿Ļä¸¤ä¸ª": 4512,
      "æıĲç¤º": 4513,
      "å¤§æ°Ķ": 4514,
      "éĥ½èĥ½": 4515,
      "çļĦæ³ķ": 4516,
      "GPT": 4517,
      "å¨ľ": 4518,
      "é½": 4519,
      "ï¼ŁâĢĿ": 4520,
      "éĻĮ": 4521,
      "å¸®åĬ©äººä»¬": 4522,
      "äººä»¬åı¯ä»¥": 4523,
      "æķĪçİĩåĴĮ": 4524,
      "å¸¸è§ģçļĦ": 4525,
      "Mi": 4526,
      "åĪ©æ¶¦": 4527,
      "çļĦæŃ£": 4528,
      "ä»Ķç»Ĩ": 4529,
      "å·§åħĭåĬĽ": 4530,
      "æĽ´åħ·": 4531,
      "ç¡®è®¤": 4532,
      "éĽ·": 4533,
      "å®¤åĨħ": 4534,
      "çļĦæİĴ": 4535,
      "çĲ³": 4536,
      "ä¹Łèĥ½": 4537,
      "éĥ½åı¯ä»¥": 4538,
      "çĲĨæĥ³": 4539,
      "çİ¯å¢ĥåĴĮ": 4540,
      "çļĦæ³¨": 4541,
      "çĶ°": 4542,
      "é¢ĨåŁŁçļĦåºĶçĶ¨": 4543,
      "äºİæĺ¯": 4544,
      "å°ıæĺİåĴĮ": 4545,
      "éĢıæĺİ": 4546,
      "æĮĸ": 4547,
      "å½ĵæĪĳä»¬": 4548,
      "çļ®èĤ¤": 4549,
      "å®ĥæĺ¯": 4550,
      "åı¯èĥ½æĢ§": 4551,
      "æĪĳéĿŀå¸¸": 4552,
      "åĩłä¹İ": 4553,
      "çļĦæľįåĬ¡": 4554,
      "åĴĮæľĭåıĭ": 4555,
      "åħ³éĶ®ä¿¡æģ¯": 4556,
      "ä¼¦çĲĨ": 4557,
      "ex": 4558,
      "çĽĹ": 4559,
      "æ¬º": 4560,
      "Ġå°Ĩ": 4561,
      "ĽçĽ¾": 4562,
      "æĿ¥åĪ°": 4563,
      "ç»Ĩèĥŀ": 4564,
      "æ½ľåĬĽ": 4565,
      "æĤł": 4566,
      "è¿Ľè¡ĮåĪĨç±»": 4567,
      "å¤Ħäºİ": 4568,
      "çĶŁäº§åĬĽ": 4569,
      "éĩĬæĶ¾": 4570,
      "ä¸ĭåİ»": 4571,
      "æ¸©æļĸ": 4572,
      "è¡¥åħħ": 4573,
      "at": 4574,
      "çļĦæ£": 4575,
      "æĽ´æ·±åħ¥": 4576,
      "å¹¶å¯¹": 4577,
      "é¡µ": 4578,
      "ç§ĳæĬĢåħ¬åı¸": 4579,
      "æĬĢèĥ½åĴĮ": 4580,
      "ä¸ºæĤ¨æıĲä¾Ľ": 4581,
      "ä¸Ģéģį": 4582,
      "çĲ´": 4583,
      "çĲĨå¿µ": 4584,
      "æŀģå¤§": 4585,
      "ç¬¬ä¸Ģæ¬¡": 4586,
      "ä¿ĿéĻ©": 4587,
      "çļĦæİ¢": 4588,
      "åıĹæ¬¢è¿İçļĦ": 4589,
      "èĤ¡ç¥¨": 4590,
      "è¿Ļå®¶": 4591,
      "å¾Īå¿«": 4592,
      "æħ¢æħ¢": 4593,
      "åĶ¯ä¸Ģ": 4594,
      "çļĦåħ¬åı¸": 4595,
      "çļĦåħ³ç³»": 4596,
      "é«ĺè¡Ģåİĭ": 4597,
      "å¼ºå¤§çļĦ": 4598,
      "ä¿ĿæĮģèº«ä½ĵåģ¥åº·": 4599,
      "åİŁåĪĻ": 4600,
      "æ¢ħ": 4601,
      "å¤ıåŃ£": 4602,
      "èļ": 4603,
      "çļĦåħ³æ³¨": 4604,
      "å¹¶æıĲé«ĺ": 4605,
      "åıĭè°Ĭ": 4606,
      "åĽ¾åĥı": 4607,
      "çĵ¶": 4608,
      "Py": 4609,
      "ä»ĸäººçļĦ": 4610,
      "åı£æĦŁ": 4611,
      "ä»Ĭå¹´": 4612,
      "çİ¯ä¿ĿæĦıè¯Ĩ": 4613,
      "èĳ±": 4614,
      "æ¯ĶèµĽä¸Ń": 4615,
      "è¿Ī": 4616,
      "åĴĮç®¡çĲĨ": 4617,
      "æĪĳä»¬å·²ç»ı": 4618,
      "å¼ķèµ·äºĨ": 4619,
      "çļĦçĬ¶": 4620,
      "å¸Ŀ": 4621,
      "å§Ĳ": 4622,
      "èĲ¥éĶĢçŃĸçķ¥": 4623,
      "éŃħåĬĽ": 4624,
      "ç¬Ķè®°": 4625,
      "æ´Ľ": 4626,
      "èĤ´": 4627,
      "æ¡Į": 4628,
      "çªģçł´": 4629,
      "æ³Ħéľ²": 4630,
      "çĶŁåĬ¨": 4631,
      "åį±å®³": 4632,
      "ä½©": 4633,
      "å®ģ": 4634,
      "å¼Ģå¤´": 4635,
      "éĴ¢": 4636,
      "åŃĺåĤ¨": 4637,
      "åĭĩæķ¢": 4638,
      "çļĦé«ĺ": 4639,
      "åĬ¨ä½ľ": 4640,
      "å¯¼æ¼Ķ": 4641,
      "åį°åº¦": 4642,
      "éĻĮçĶŁ": 4643,
      "åĴĮè¡Įä¸º": 4644,
      "åĪ·": 4645,
      "æĿ¥è§£åĨ³": 4646,
      "åĩıç¼ĵ": 4647,
      "å°½åĬĽ": 4648,
      "ç®Ģè¦ģ": 4649,
      "çļĦç³": 4650,
      "è¾¾æĪĲ": 4651,
      "é©±": 4652,
      "çħ§é¡¾": 4653,
      "çļĦè§£åĨ³æĸ¹æ¡Ī": 4654,
      "è´´": 4655,
      "åĽŀçŃĶéĹ®é¢ĺ": 4656,
      "èĬĤçĽ®": 4657,
      "èĬĤçº¦": 4658,
      "æł¹æį®ä»¥ä¸Ĭè¿Ļæ®µå¯¹è¯ĿåĨħå®¹åĽŀçŃĶ": 4659,
      "çļĦä¸ĢäºĽ": 4660,
      "å¤§éĥ¨åĪĨ": 4661,
      "æ¼Ĥ": 4662,
      "åľŁåľ°": 4663,
      "å¹½": 4664,
      "ä¸įæĸŃè¿ĽæŃ¥": 4665,
      "ç¦ģ": 4666,
      "å§ĵåĲį": 4667,
      "60": 4668,
      "çļĦåŁºæľ¬": 4669,
      "èİİ": 4670,
      "ç»Łè®¡": 4671,
      "çĨĬçĮ«": 4672,
      "å¿ĹæĦ¿èĢħ": 4673,
      "çļĦæııè¿°": 4674,
      "çļĦæīĢæľī": 4675,
      "åľ¨å½ĵä»Ĭ": 4676,
      "è¿Ļåº§": 4677,
      "äºĭæķħ": 4678,
      "ä¸ªäººä¿¡æģ¯": 4679,
      "2021": 4680,
      "æļĤ": 4681,
      "èĢĥèĻĳåĪ°": 4682,
      "çªģåĩº": 4683,
      "å®¿": 4684,
      "é£ŁæĿĲ": 4685,
      "æĮĩåįĹ": 4686,
      "æīĵç®Ĺ": 4687,
      "è·¯ä¸Ĭ": 4688,
      "åĳ¨æľ«": 4689,
      "ä¸ĭéĿ¢è¿Ļæ®µæĸĩæľ¬": 4690,
      "çļĦæĳĦåħ¥": 4691,
      "åĪĹåĩº": 4692,
      "åį³åı¯": 4693,
      "AIæĬĢæľ¯": 4694,
      "æĩĪ": 4695,
      "çļĦç¨ĭåºıåĳĺ": 4696,
      "è½¦è¾Ĩ": 4697,
      "æĶ¾æĿ¾èº«å¿ĥ": 4698,
      "éģĹäº§": 4699,
      "åİŁçĲĨ": 4700,
      "æĪĲåĬŁçļĦåħ³éĶ®": 4701,
      "çļĦæ³¨æĦı": 4702,
      "æĭĴ": 4703,
      "å°ıçļĦ": 4704,
      "ç§įæ¤į": 4705,
      "éĥ½éľĢè¦ģ": 4706,
      "åıĳçĶŁäºĨ": 4707,
      "éĹ®çŃĶç¤¾åĮº": 4708,
      "å§Ķ": 4709,
      "æłĩçŃ¾": 4710,
      "ä¼Ĺå¤ļ": 4711,
      "åŃ©åŃĲçļĦ": 4712,
      "ä¸įåı¯å°ĳ": 4713,
      "éĢĲæŃ¥": 4714,
      "éĿŀå¸¸å¥½": 4715,
      "ä¸ªäººçļĦ": 4716,
      "æīĢæľīçļĦ": 4717,
      "è¿Ļç¯ĩ": 4718,
      "çļĦæĶ¶": 4719,
      "é¢ĳç¹ģ": 4720,
      "æİ¢ç©¶": 4721,
      "ç¤ºä¾ĭ": 4722,
      "ä¿ĿæĬ¤æĪĳä»¬çļĦ": 4723,
      "åħ´è¶£çĪ±å¥½": 4724,
      "åĴĮåģ¥åº·": 4725,
      "åĬłåī§": 4726,
      "è¯·æķĻ": 4727,
      "çİ¯å¢ĥæ±¡æŁĵ": 4728,
      "ä¸įä»ħä»ħæĺ¯": 4729,
      "è°¨æħİ": 4730,
      "åľĨ": 4731,
      "æĦŁåĪ°éĿŀå¸¸": 4732,
      "ä¸ĵä¸ļçļĦ": 4733,
      "çıįæĥľ": 4734,
      "èĿ": 4735,
      "åĴĮä¿¡æģ¯": 4736,
      "èī°": 4737,
      "å®¶éĩĮ": 4738,
      "åĲįåı«": 4739,
      "äºīè®®": 4740,
      "äºĮæ°§åĮĸ": 4741,
      "ä¸İä»ĸäºº": 4742,
      "çĶµåķĨ": 4743,
      "æ¹¿": 4744,
      "éĩİçĶŁåĬ¨çī©": 4745,
      "æĽ´å¤§çļĦ": 4746,
      "ç»Īäºİ": 4747,
      "ä¸Ģå®ļè¦ģ": 4748,
      "æĲŃéħį": 4749,
      "æĺ¯åķĬ": 4750,
      "ä¸įéľĢè¦ģ": 4751,
      "çļĦæ¬": 4752,
      "å¿ħä¸įåı¯å°ĳ": 4753,
      "ç®Ģæ´ģ": 4754,
      "æ¶ĪèĢĹ": 4755,
      "åĩĨç¡®æĢ§": 4756,
      "ä¸¾è¡Į": 4757,
      "å½Ĵç±»": 4758,
      "çº¯": 4759,
      "èĥĥ": 4760,
      "åĩĨç¡®åľ°": 4761,
      "åįĵè¶Ĭ": 4762,
      "è¿ĻäºĽä¿¡æģ¯": 4763,
      "éľĢæ±ĤåĴĮ": 4764,
      "ä»¥å¸®åĬ©": 4765,
      "çļĦæ¨": 4766,
      "å¯¹æĪĳ": 4767,
      "æī¬": 4768,
      "è§ģåĪ°": 4769,
      "æİĴåĪĹ": 4770,
      "çĥŃéĩı": 4771,
      "è¿ŀè´¯": 4772,
      "å¤¸": 4773,
      "å¤§è§Ħæ¨¡": 4774,
      "æ°ĽåĽ´": 4775,
      "æŃ£å¼ı": 4776,
      "éĤ£ä½ł": 4777,
      "å¥³å£«": 4778,
      "æĭ¼åĨĻ": 4779,
      "è¾ħåĬ©": 4780,
      "ä¹³": 4781,
      "åĩºçīĪ": 4782,
      "22": 4783,
      "æľīéĻĲ": 4784,
      "å¦ĩ": 4785,
      "æ±ģ": 4786,
      "ä»¥ä¸ĭæĸĩç«ł": 4787,
      "ä¸ĸçķĮåĲĦåľ°": 4788,
      "çıł": 4789,
      "åį«æĺŁ": 4790,
      "çīĽå¥¶": 4791,
      "çļĦæ¯ı": 4792,
      "ä¹Łå¸¦æĿ¥äºĨ": 4793,
      "æİ¢éĻ©": 4794,
      "æĸĩåĮĸçļĦ": 4795,
      "æİ¥ç§į": 4796,
      "æĽ¼": 4797,
      "åĴĮä¸Ģä¸ª": 4798,
      "ä¸Ģå¹´": 4799,
      "è¿ĩçļĦ": 4800,
      "åŁĥ": 4801,
      "åĲİæŀľ": 4802,
      "çľĭçĶµå½±": 4803,
      "å¿ĥè¡Ģç®¡": 4804,
      "çĪ¬": 4805,
      "thon": 4806,
      "ä¸ĬäºĨ": 4807,
      "ä¸ĭåĪĹ": 4808,
      "åłµ": 4809,
      "æľīè¶£çļĦ": 4810,
      "my": 4811,
      "ä¼ļå½±åĵį": 4812,
      "çĲĥåĳĺ": 4813,
      "å®¢æľį": 4814,
      "åĪĽå»ºä¸Ģä¸ª": 4815,
      "ä¸įèµ·": 4816,
      "åĩī": 4817,
      "å¦¹": 4818,
      "å¹¶å°Ĩåħ¶": 4819,
      "æ®ĸ": 4820,
      "èĭ¥": 4821,
      "æĹħç¨ĭ": 4822,
      "åį³å°Ĩ": 4823,
      "çļĦç¼ĸç¨ĭ": 4824,
      "æ½®": 4825,
      "äºĭé¡¹": 4826,
      "ç¥ŀç§ĺçļĦ": 4827,
      "åħ¶ä»ĸäºº": 4828,
      "è°¢è°¢ä½ł": 4829,
      "ä¸Ģå®ļä¼ļ": 4830,
      "åĴĮæĹ¶éĹ´": 4831,
      "åĴĮåĪĽæĸ°": 4832,
      "å¼Ĺ": 4833,
      "åģļä¸ĢäºĽ": 4834,
      "è§Ĥå¿µ": 4835,
      "çİ¯å¢ĥéĹ®é¢ĺ": 4836,
      "åĿļå®ļ": 4837,
      "çļĦè¡¨çİ°": 4838,
      "è®¯": 4839,
      "å¯Ĵ": 4840,
      "èµ·æºĲ": 4841,
      "äººå·¥æĻºèĥ½åľ¨": 4842,
      "åĴĮè°Ĳ": 4843,
      "æĹ±": 4844,
      "ä¼¯": 4845,
      "è½¬æį¢": 4846,
      "çļĦæµģ": 4847,
      "åħįçĸ«åĬĽ": 4848,
      "åĴĮæ°´": 4849,
      "âĢĿãĢģ": 4850,
      "èĥ¸": 4851,
      "æ¸ħåįķ": 4852,
      "äºĮæ°§åĮĸç¢³": 4853,
      "Ġå¥½çļĦ": 4854,
      "è¿ĻæĦıåĳ³çĿĢ": 4855,
      "æŃ§": 4856,
      "çľŁæĺ¯": 4857,
      "å¿ĥçĲĨåŃ¦": 4858,
      "åį±æľº": 4859,
      "èĥľåĪ©": 4860,
      "é£ŀè¡Į": 4861,
      "ä¸įåı¯æĪĸç¼ºçļĦä¸Ģéĥ¨åĪĨ": 4862,
      "èİ«": 4863,
      "åł¡": 4864,
      "èĩªä¿¡å¿ĥ": 4865,
      "åĮĸçŁ³çĩĥæĸĻ": 4866,
      "æĮĸæİĺ": 4867,
      "åĲİçļĦ": 4868,
      "ç¤¾äº¤åªĴä½ĵä¸Ĭ": 4869,
      "çĪ¶äº²": 4870,
      "ä¿ĿçķĻ": 4871,
      "å¹´äºº": 4872,
      "åıĳçİ°èĩªå·±": 4873,
      "Python": 4874,
      "è©": 4875,
      "æľīäºĨ": 4876,
      "ä¸ªæľĪ": 4877,
      "å®¶æĹı": 4878,
      "èĭ±éĽĦ": 4879,
      "è¦ģä¿ĿæĮģ": 4880,
      "åĩ¡": 4881,
      "æĪĳä»¬è¿ĺ": 4882,
      "åĽŀå¿Ĩ": 4883,
      "åĽŀçŃĶè¿Ļä¸ªéĹ®é¢ĺ": 4884,
      "ç¢İ": 4885,
      "ç¢ĳ": 4886,
      "çļĦæķ°éĩı": 4887,
      "çļĦæĦıæĢĿ": 4888,
      "å®Ŀè´µ": 4889,
      "å¡ĳéĢł": 4890,
      "çķªèĮĦ": 4891,
      "åĪ°åºķ": 4892,
      "å¤ļåħĥ": 4893,
      "çĽ¸åıį": 4894,
      "ä»İå°ı": 4895,
      "è§ģè§£": 4896,
      "æ£Ģæµĭ": 4897,
      "åħģ": 4898,
      "æĻĴ": 4899,
      "å¯¼å¸Ī": 4900,
      "èĢģäºº": 4901,
      "æīĵå¼Ģ": 4902,
      "èŀįåħ¥": 4903,
      "ðŁ": 4904,
      "ä¸įæĩĪ": 4905,
      "æľ¬è´¨": 4906,
      "åħ¨åĽ½": 4907,
      "æŁĶ": 4908,
      "æİªæĸ½æĿ¥": 4909,
      "Mary": 4910,
      "åĬ©æīĭ": 4911,
      "åı¯ä»¥æıĲä¾Ľ": 4912,
      "è½¨": 4913,
      "äº¤æµģåĴĮ": 4914,
      "ä¸ģ": 4915,
      "å°Ĩåľ¨": 4916,
      "æ·¡": 4917,
      "è·¯çº¿": 4918,
      "æĹ©é¤Ĳ": 4919,
      "èŀįåĲĪ": 4920,
      "çĦ¦èĻĳåĴĮ": 4921,
      "ä½ĵç³»": 4922,
      "æĥħåĴĮ": 4923,
      "åĪ¶å®ļä¸Ģä¸ª": 4924,
      "é¼ł": 4925,
      "çĽĸèĮ¨": 4926,
      "çļĦç»ıåİĨ": 4927,
      "æľīå¤ļ": 4928,
      "çļĦæĢ§èĥ½": 4929,
      "åĴĮäººç±»": 4930,
      "åģ¶": 4931,
      "æ³ķè§Ħ": 4932,
      "èĩªçĦ¶çİ¯å¢ĥ": 4933,
      "åħģè®¸": 4934,
      "åĴĮæıĲé«ĺ": 4935,
      "åĽŀåĪ°": 4936,
      "äººä»¬çļĦçĶŁæ´»": 4937,
      "ç»ĦåĲĪ": 4938,
      "åĪĨæŀĲåĴĮ": 4939,
      "åĪĺ": 4940,
      "åºĦ": 4941,
      "è´«": 4942,
      "åº¦çļĦ": 4943,
      "éĥ½ä¸į": 4944,
      "åģ¥åº·éĹ®é¢ĺ": 4945,
      "è¢«ç§°ä¸º": 4946,
      "åĿĩè¡¡": 4947,
      "åľ¨çİ°ä»£ç¤¾ä¼ļ": 4948,
      "æĹĭ": 4949,
      "æĭĮ": 4950,
      "çĪ·": 4951,
      "ç§ĳæĬĢçļĦåıĳå±ķ": 4952,
      "è¡Įä¸ļçļĦ": 4953,
      "çļĦæĮĩå¯¼": 4954,
      "è¿Ł": 4955,
      "ä½łåºĶè¯¥": 4956,
      "çĽĴ": 4957,
      "æĢ§åĪ«": 4958,
      "çļĦç²¾ç¥ŀ": 4959,
      "NL": 4960,
      "åı¹": 4961,
      "å¦»": 4962,
      "å·²ç»ıåľ¨": 4963,
      "åĪĽæĸ°åĴĮ": 4964,
      "çļĦæĢĿæĥ³": 4965,
      "åľ¨è¿ĩåİ»çļĦ": 4966,
      "æĭľ": 4967,
      "åº¦åģĩ": 4968,
      "çļĦæĢ»": 4969,
      "çļĦæ¦Ĥå¿µ": 4970,
      "âĢĿãĢģâĢľ": 4971,
      "åĮ¹": 4972,
      "è¾ŀ": 4973,
      "çİĽä¸½äºļ": 4974,
      "Lily": 4975,
      "it": 4976,
      "åľ°äºĨè§£": 4977,
      "æ¯«": 4978,
      "åı¯èĥ½éľĢè¦ģ": 4979,
      "æīĭè¡¨": 4980,
      "èĬ±åĽŃ": 4981,
      "æĢĿèĢĥåĴĮ": 4982,
      "åıĳè¡¨": 4983,
      "å½ĵåľ°çļĦ": 4984,
      "äººæīį": 4985,
      "çİ°æľī": 4986,
      "æīĢè¿°": 4987,
      "åĶĲ": 4988,
      "åĲĦç§įåĲĦ": 4989,
      "éĿ©åĳ½": 4990,
      "éªĮè¯ģ": 4991,
      "ä»¥ä¸ĭåĩłä¸ª": 4992,
      "è¿Ļç§įæĥħåĨµ": 4993,
      "ä¹ĭéĹ´çļĦåħ³ç³»": 4994,
      "ara": 4995,
      "æľīæĦıä¹ī": 4996,
      "æĤ²": 4997,
      "çĭĤ": 4998,
      "çļĦäººçĶŁ": 4999,
      "é¤Ĳé¦Ĩ": 5000,
      "Ġ2": 5001,
      "è°ĵ": 5002,
      "åĩłå¤©": 5003,
      "çļĦç¾İå¥½": 5004,
      "æľīæľº": 5005,
      "éľį": 5006,
      "å¹¶ç¡®ä¿Ŀ": 5007,
      "çº¿ä¸Ĭ": 5008,
      "çĽĬå¤Ħ": 5009,
      "çİ©æ¸¸æĪı": 5010,
      "åĩºçİ°äºĨ": 5011,
      "æ³¢çī¹": 5012,
      "çļĦæĶ¯æĮģåĴĮ": 5013,
      "å±ıå¹ķ": 5014,
      "çĽ®çļĦæĺ¯": 5015,
      "åĲ¬èµ·æĿ¥ä¸įéĶĻ": 5016,
      "æ²īè¿·": 5017,
      "çļĦåŃ¦çĶŁ": 5018,
      "è¿Ŀ": 5019,
      "ä½łè¯´": 5020,
      "è¾Ľ": 5021,
      "ç½©": 5022,
      "å¹¿æ³ĽçļĦåºĶçĶ¨": 5023,
      "ĠS": 5024,
      "åĮĢ": 5025,
      "æĪĳä»¬æŃ£åľ¨": 5026,
      "åı¯ä»¥ä½¿": 5027,
      "èģĮåľºä¸Ń": 5028,
      "åĪĽä¸ļèĢħ": 5029,
      "åħĶåŃĲ": 5030,
      "ä¸Ģåľº": 5031,
      "å°ıçĭĹ": 5032,
      "å·¥ä½ľçļĦ": 5033,
      "æ´ªæ°´": 5034,
      "å½ĵä»£": 5035,
      "ä½¿çĶ¨äºĨ": 5036,
      "æľīæľºä¼ļ": 5037,
      "æĪĳä»¬è¦ģ": 5038,
      "çļĦç¡": 5039,
      "äººä»¬åľ¨": 5040,
      "çĥ¹é¥ª": 5041,
      "å»ºè®®åĲĹ": 5042,
      "ä¸ŃåĽ½çļĦ": 5043,
      "è®°ä½ı": 5044,
      "æľīä»»ä½ķ": 5045,
      "çĶ¨çļĦ": 5046,
      "æĸ°åĨł": 5047,
      "æİ¨çĲĨ": 5048,
      "éħįåĲĪ": 5049,
      "åħ·ä½ĵçļĦ": 5050,
      "æ°¸è¿ľ": 5051,
      "å¸Ń": 5052,
      "æ¸¯": 5053,
      "æıĲä¾Ľä¸ĢäºĽ": 5054,
      "æĹłéĻĲ": 5055,
      "åķĨåºĹ": 5056,
      "å»ºç«ĭä¸Ģä¸ª": 5057,
      "éĩįè¦ģçļĦæĺ¯": 5058,
      "åĲ«æľī": 5059,
      "åĴĮæķ°æį®": 5060,
      "æĬµ": 5061,
      "ä¾§": 5062,
      "ä¸»æĹ¨": 5063,
      "æµ·æ»©": 5064,
      "æĭħå¿§": 5065,
      "æī¿æĭħ": 5066,
      "çĪ±å¥½èĢħ": 5067,
      "èĤ¥èĥĸ": 5068,
      "et": 5069,
      "è¦ģçĤ¹": 5070,
      "åĲĦä½į": 5071,
      "è®°å¾Ĺ": 5072,
      "çļĦåĬĽéĩı": 5073,
      "éļ¾å¿ĺ": 5074,
      "è±¡å¾ģ": 5075,
      "çĶµåŃĲè®¾å¤ĩ": 5076,
      "çļĦä½ĵéªĮ": 5077,
      "æĿ¥å¸®åĬ©": 5078,
      "å¤§å¤§": 5079,
      "éĺĲ": 5080,
      "æľįåĬ¡åĳĺ": 5081,
      "__": 5082,
      "åĴĮä¸ªäºº": 5083,
      "å¯¹å¾ħ": 5084,
      "æł¹æį®å¯¹è¯ĿåĨħå®¹åĽŀçŃĶ": 5085,
      "è¿Ĳè¡Į": 5086,
      "çĥŃéĹ¨": 5087,
      "åįļå®¢": 5088,
      "Alex": 5089,
      "ç£¨": 5090,
      "æł¹æį®å¯¹è¯ĿåĨħå®¹åĽŀçŃĶè¿Ļä¸ªéĹ®é¢ĺ": 5091,
      "as": 5092,
      "ä¹Į": 5093,
      "æĽ´æĺ¯": 5094,
      "åŃĲéĩĮ": 5095,
      "å¹³çŃī": 5096,
      "ä¼ĺè´¨": 5097,
      "ï¼ģï¼ģ": 5098,
      "çº¢èī²": 5099,
      "è´Łæĭħ": 5100,
      "æĲŀ": 5101,
      "çļĦåĬªåĬĽ": 5102,
      "ä¸įç¡®å®ļ": 5103,
      "çº¤": 5104,
      "åıĺæĪĲ": 5105,
      "å·¥ä½ľåİĭåĬĽ": 5106,
      "æĻºèĥ½åĮĸ": 5107,
      "åĽłä¸ºå®ĥä»¬": 5108,
      "éĻĦè¿ĳ": 5109,
      "å¹½é»ĺ": 5110,
      "çļĦæ¨¡": 5111,
      "æķ°çĻ¾": 5112,
      "çĲĥéĺŁ": 5113,
      "éĩĳéĴ±": 5114,
      "ç¢Į": 5115,
      "åı¦ä¸Ģæĸ¹éĿ¢": 5116,
      "çļĦä½ľçĶ¨": 5117,
      "åĪĨå¸ĥ": 5118,
      "å»ºç«ĭèī¯å¥½çļĦ": 5119,
      "èĪĴæľį": 5120,
      "æĺ¯åħ³äºİ": 5121,
      "å¤§çº¦": 5122,
      "å½±çīĩ": 5123,
      "çŁ¿": 5124,
      "ä¸¤ç§į": 5125,
      "å®¢æĪ·çļĦ": 5126,
      "åįĩçº§": 5127,
      "è®¡ç®Ĺæľºè§Ĩè§ī": 5128,
      "å¹²æĹ±": 5129,
      "éĻ·åħ¥": 5130,
      "å°ıéķĩ": 5131,
      "é¢Ħè®¡": 5132,
      "çļĦçł´": 5133,
      "åı¯æĮģç»ŃæĢ§": 5134,
      "åĩºèī²çļĦ": 5135,
      "é¸¡èĽĭ": 5136,
      "çļĦæĬĢèĥ½åĴĮ": 5137,
      "è¯ĹæŃĮ": 5138,
      "åľ¨è¿Ļæ®µ": 5139,
      "èĩªå·±åĴĮ": 5140,
      "å®¢è§Ĥ": 5141,
      "ç®¡çĲĨåĴĮ": 5142,
      "èĩªåĬ¨é©¾é©¶æ±½è½¦": 5143,
      "åħµ": 5144,
      "ä¹Ŀ": 5145,
      "å°ĨæĪĲä¸º": 5146,
      "åĲĪçī©": 5147,
      "ä¿ĿæĮģèī¯å¥½çļĦ": 5148,
      "13": 5149,
      "æľīä»·åĢ¼": 5150,
      "åľ°éľĩ": 5151,
      "èµļ": 5152,
      "è®©ä»ĸ": 5153,
      "åıĭå¥½": 5154,
      "åģĩè®¾": 5155,
      "çļĦæŃ¥": 5156,
      "14": 5157,
      "è¿ĻæľīåĬ©äºİ": 5158,
      "å°ıåŀĭ": 5159,
      "æµ®": 5160,
      "åĩłåįģå¹´": 5161,
      "çļĦéĩįè¦ģç»ĦæĪĲéĥ¨åĪĨ": 5162,
      "å¼Ĥå¸¸": 5163,
      "åŀĥåľ¾åĪĨç±»": 5164,
      "éī": 5165,
      "ï¼ħ": 5166,
      "è¿Ļä»½": 5167,
      "èĥĨ": 5168,
      "åĮºåĪ«": 5169,
      "æ¸©å®¤æ°Ķä½ĵæİĴæĶ¾": 5170,
      "çļĦæ¡": 5171,
      "èī²å½©": 5172,
      "å®¢äºº": 5173,
      "æĺŁæľŁ": 5174,
      "å¤±ä¸ļ": 5175,
      "éĶ»çĤ¼èº«ä½ĵ": 5176,
      "ä¸įå¾Ĺ": 5177,
      "èĢį": 5178,
      "æĪĲç«ĭ": 5179,
      "è¿Ľåº¦": 5180,
      "å¢Ļ": 5181,
      "æĤ¨èĥ½": 5182,
      "éĥ½å¾Ī": 5183,
      "å¸®å¿Ļ": 5184,
      "ç¾Ĭ": 5185,
      "åĪ©äºİ": 5186,
      "å¹¿æ³ĽçļĦ": 5187,
      "ç¨ĭåºıåĳĺ": 5188,
      "éī´": 5189,
      "æĪĳå°±": 5190,
      "åĢį": 5191,
      "éĢĤçĶ¨äºİ": 5192,
      "èģĶåĲĪ": 5193,
      "éĩįæĸ°åıĻè¿°": 5194,
      "é¸£": 5195,
      "éĩįæĸ°åıĻè¿°ä¸Ģéģį": 5196,
      "æľµ": 5197,
      "å®ļåĪ¶": 5198,
      "æııç»ĺ": 5199,
      "ä¼ĺæĥł": 5200,
      "æİĴåºı": 5201,
      "çļĦç®¡": 5202,
      "éĹ®é¢ĺåĴĮ": 5203,
      "åĲĳæĤ¨": 5204,
      "é¥®çĶ¨": 5205,
      "äºĶä¸ª": 5206,
      "å¤ļæ¬¡": 5207,
      "çĶŁæ´»è´¨éĩı": 5208,
      "åıĸå¾ĹæĪĲåĬŁ": 5209,
      "NLP": 5210,
      "Ġå½ĵçĦ¶": 5211,
      "ä¹Łè¦ģ": 5212,
      "åĪĨæĶ¯": 5213,
      "å¿Ļç¢Į": 5214,
      "oo": 5215,
      "äººå·¥æĻºèĥ½åĴĮ": 5216,
      "åķĨå®¶": 5217,
      "åľ¨å®¶éĩĮ": 5218,
      "åĴª": 5219,
      "å¯º": 5220,
      "é¢Ī": 5221,
      "å½»": 5222,
      "éķ¿çļĦ": 5223,
      "åĿĢ": 5224,
      "çİ¯å¢ĥä¸Ń": 5225,
      "å°ıç»Ħ": 5226,
      "ä¸İæŃ¤": 5227,
      "çĽ¸å½ĵ": 5228,
      "æıĲé«ĺå·¥ä½ľæķĪçİĩ": 5229,
      "ä»¶äºº": 5230,
      "åİĨç¨ĭ": 5231,
      "é©¬åħĭ": 5232,
      "æħ¢æĢ§": 5233,
      "å¯¿åĳ½": 5234,
      "çļĦçŁŃæĸĩ": 5235,
      "Sara": 5236,
      "çļĦåķĨä¸ļ": 5237,
      "çļĦé£Łåĵģ": 5238,
      "æĬ¢": 5239,
      "çľĭæ³ķ": 5240,
      "æł¹æį®è¿Ļæ®µ": 5241,
      "çĭ¸": 5242,
      "æĸ¹æ³ķæĿ¥": 5243,
      "ç´§å¯Ĩ": 5244,
      "åħ±åĲĮåĬªåĬĽ": 5245,
      "æįŁå¤±": 5246,
      "è¿Ļä¸ªéĹ®é¢ĺçļĦçŃĶæ¡Īæĺ¯ä»Ģä¹Ī": 5247,
      "ä¼ļåľ¨": 5248,
      "å¹¶è¿Ľè¡Į": 5249,
      "çŁĽçĽ¾": 5250,
      "è·ĥ": 5251,
      "åĲ¬éŁ³ä¹Ĳ": 5252,
      "ç±»åŀĭçļĦ": 5253,
      "åĲ¸æĶ¶": 5254,
      "éĵº": 5255,
      "ç¼ĸç¨ĭè¯Ńè¨Ģ": 5256,
      "å¿ĺè®°": 5257,
      "è¿Ļæĺ¯ä¸Ģç¯ĩ": 5258,
      "èľľ": 5259,
      "çļĦçģµ": 5260,
      "ä¼Ĳ": 5261,
      "çļĦæį": 5262,
      "æĪĲçĨŁ": 5263,
      "åģļçļĦ": 5264,
      "æ¯ıåĳ¨": 5265,
      "å°¤åħ¶æĺ¯åľ¨": 5266,
      "æŀģç«¯å¤©æ°Ķ": 5267,
      "æıŃç¤º": 5268,
      "åĴĮå¯¹": 5269,
      "çļĦæŁ": 5270,
      "ä¸ºä½ł": 5271,
      "åŃ¦èĢħ": 5272,
      "è´¸": 5273,
      "èµ¶": 5274,
      "åħ¬æŃ£": 5275,
      "åħ¬å¹³": 5276,
      "éĩįè¦ģæĢ§": 5277,
      "çĭĲ": 5278,
      "ä»¥åıĬå¦Ĥä½ķ": 5279,
      "åįĩé«ĺ": 5280,
      "æıĲåıĸåĩº": 5281,
      "è½¬åĮĸä¸º": 5282,
      "åıĳæİĺ": 5283,
      "ä¸»æĦı": 5284,
      "æ¼ı": 5285,
      "ä¸ĵéĹ¨": 5286,
      "çĶ·äºº": 5287,
      "è¡¨è¾¾èĩªå·±": 5288,
      "ç§ĺå¯Ĩ": 5289,
      "çľŁçļĦå¾Ī": 5290,
      "èĴľ": 5291,
      "åĲģ": 5292,
      "æĽ´é«ĺçļĦ": 5293,
      "æľĢåĪĿ": 5294,
      "è¾©": 5295,
      "çļĦæĬ¥": 5296,
      "æ³¨æĦıåĪ°": 5297,
      "èıľèĤ´": 5298,
      "å¯¹è¯ĿåĨħå®¹åĽŀçŃĶéĹ®é¢ĺ": 5299,
      "çļĦçĬ¶æĢģ": 5300,
      "æł¹æį®è¿Ļæ®µå¯¹è¯ĿåĨħå®¹åĽŀçŃĶéĹ®é¢ĺ": 5301,
      "æĻ¨": 5302,
      "åģ¥åº·çļĦçĶŁæ´»æĸ¹å¼ı": 5303,
      "è¿ĻäºĽéĥ½æĺ¯": 5304,
      "ä»¥ä¸ĭåĩł": 5305,
      "æĶ¾åħ¥": 5306,
      "ä½ľä¸ºä¸Ģä¸ª": 5307,
      "æĿĥåĪ©": 5308,
      "ç¬¦åı·": 5309,
      "çļĦçĭ¬çī¹": 5310,
      "æľĢæĸ°çļĦ": 5311,
      "è¿ĽèĢĮ": 5312,
      "éĺ´": 5313,
      "æ¡Ĩ": 5314,
      "å¦Īå¦Ī": 5315,
      "çļĦæ½ľåĬĽ": 5316,
      "çĶµåĬ¨æ±½è½¦": 5317,
      "æ¶Īæģ¯": 5318,
      "åĲ¸å¼ķäºĨ": 5319,
      "è·Łè¸ª": 5320,
      "èĻļåģĩ": 5321,
      "å¼ķèµ·çļĦ": 5322,
      "è¿Ļè¡¨æĺİ": 5323,
      "ç´łåħ»": 5324,
      "ä¼łç»ŁæĸĩåĮĸ": 5325,
      "åĲ¯åıĳ": 5326,
      "æī®æ¼ĶçĿĢ": 5327,
      "Mike": 5328,
      "çļĩ": 5329,
      "çļĦåıĳçĶŁ": 5330,
      "è¿Ķ": 5331,
      "è¿Ļä¸ªé¡¹çĽ®": 5332,
      "æ²¡éĹ®é¢ĺ": 5333,
      "åĽĽä¸ª": 5334,
      "åı«åģļ": 5335,
      "æł¸å¿ĥ": 5336,
      "éķ¿åº¦": 5337,
      "åĲĪçĲĨçļĦ": 5338,
      "ä¹ŁåºĶè¯¥": 5339,
      "èĥ½å¤ŁæĽ´å¥½åľ°": 5340,
      "EO": 5341,
      "æľ¬äºº": 5342,
      "ä¸ĵä¸ļçŁ¥è¯Ĩ": 5343,
      "åĭĴ": 5344,
      "Emma": 5345,
      "æĺ¯éĢļè¿ĩ": 5346,
      "æ¯ģ": 5347,
      "åĪ¶åº¦": 5348,
      "å§»": 5349,
      "å¡«": 5350,
      "æĹ©æľŁ": 5351,
      "æ¢°": 5352,
      "èĽĭç³ķ": 5353,
      "äºĳè®¡ç®Ĺ": 5354,
      "èİīèİī": 5355,
      "çº¤ç»´": 5356,
      "æĪª": 5357,
      "ä¸įæĥ³": 5358,
      "åı¯ä»¥è¢«": 5359,
      "æĽ´é«ĺæķĪ": 5360,
      "åĩºçļĦ": 5361,
      "çī©èģĶç½ĳ": 5362,
      "å¢¨": 5363,
      "ä¸ľäº¬": 5364,
      "å½Ĵç±»ä¸º": 5365,
      "çļĦå¸®åĬ©": 5366,
      "æķ¦": 5367,
      "åıĳéĢģ": 5368,
      "åŃ¦çĶŁä»¬": 5369,
      "ä¸Ģç¯ĩåħ³äºİ": 5370,
      "åĭĥ": 5371,
      "æĴĳ": 5372,
      "æĸĩæľ¬åĪĨç±»": 5373,
      "ç»ĵå±Ģ": 5374,
      "ç®ĢåİĨ": 5375,
      "æĤ¨çļĦå»ºè®®": 5376,
      "åĽ°æī°": 5377,
      "è®¿éĹ®": 5378,
      "çļĦè®¾è®¡": 5379,
      "æĪĳåıĳçİ°": 5380,
      "éĢ¼": 5381,
      "å¼Ģå¿ĥ": 5382,
      "å¤©ç©º": 5383,
      "å¤ªå¥½äºĨ": 5384,
      "æĵİ": 5385,
      "åĴĮä½ł": 5386,
      "æĸĩæ¡£": 5387,
      "æĦıå¤ĸ": 5388,
      "ä¸İæĤ¨": 5389,
      "å¼łåħĪçĶŁ": 5390,
      "çİ©èĢį": 5391,
      "é¢Ħè®Ńç»ĥæĹ¶": 5392,
      "çĻĮçĹĩ": 5393,
      "çļĦçł´åĿı": 5394,
      "åĸ·": 5395,
      "å½±åĵįåĬĽ": 5396,
      "ä»¥ä¸ĭæĺ¯ä¸ĢäºĽ": 5397,
      "èĴĻ": 5398,
      "æĤłä¹ħ": 5399,
      "çĽĸèĮ¨æ¯Ķ": 5400,
      "ä¸ĢæĿ¡": 5401,
      "ä¼ļæľī": 5402,
      "ä¹ŁåŃĺåľ¨": 5403,
      "æ¸´": 5404,
      "åħ¥æīĭ": 5405,
      "æĹ¶éĹ´åĨħ": 5406,
      "å¹³éĿĻ": 5407,
      "éĩĩåıĸä¸ĢäºĽ": 5408,
      "åĳ¼åĲģ": 5409,
      "çļĦçĪ±æĥħ": 5410,
      "el": 5411,
      "ĊĠĠ": 5412,
      "åĴĮæĪĳ": 5413,
      "åĴĮç»ıæµİ": 5414,
      "æĪĳçİ°åľ¨": 5415,
      "ä½łè¦ģ": 5416,
      "åı¯ä»¥ä»İ": 5417,
      "å©ļå§»": 5418,
      "æĭĴç»Ŀ": 5419,
      "ily": 5420,
      "ä¼¸": 5421,
      "è¿Ľç¨ĭ": 5422,
      "åİŁæĸĩ": 5423,
      "ç»ıéªĮçļĦ": 5424,
      "ä¸´åºĬ": 5425,
      "ç»¼ä¸Ĭ": 5426,
      "çļĦçī¹çĤ¹": 5427,
      "äºĨä»ĸ": 5428,
      "éĹª": 5429,
      "å¼Ł": 5430,
      "ä¿¡å¿µ": 5431,
      "æıĲä¾Ľä¸Ģä¸ª": 5432,
      "ä»£è°¢": 5433,
      "äººå·¥æĻºèĥ½çļĦåıĳå±ķ": 5434,
      "èĭ±æĸĩ": 5435,
      "æĶ¿åºľåĴĮ": 5436,
      "ç§¯æŀģçļĦå¿ĥæĢģ": 5437,
      "åĬ£": 5438,
      "éĿ¢åĮħ": 5439,
      "å®īéĿĻ": 5440,
      "å¼ķæĵİ": 5441,
      "ç§¯æŀģåıĤä¸İ": 5442,
      "å¯ĨåĪĩ": 5443,
      "äºĭå®ŀä¸Ĭ": 5444,
      "åİĭåĬĽåĴĮçĦ¦èĻĳ": 5445,
      "çĸ¼çĹĽ": 5446,
      "æĺĤ": 5447,
      "éĢĨ": 5448,
      "æĪĳä»¬å¯¹": 5449,
      "åĮĸåĲĪçī©": 5450,
      "è¿ĻäºĽæĬĢæľ¯": 5451,
      "æĶ¯æĮģåĴĮ": 5452,
      "....": 5453,
      "Amy": 5454,
      "åĴĮäºº": 5455,
      "çİ°åľº": 5456,
      "åŃĲåĴĮ": 5457,
      "è¿Ļä¸ªæķħäºĭ": 5458,
      "åĲĦåĽ½": 5459,
      "çļĦäººçī©": 5460,
      "ç¬¬ä¸Ģä¸ª": 5461,
      "çļĦå¿ĥæĢģ": 5462,
      "æĲº": 5463,
      "æī¹åĪ¤": 5464,
      "æīİ": 5465,
      "æµ¸": 5466,
      "ç©·": 5467,
      "æ·ĺ": 5468,
      "å°ıæĺİçļĦ": 5469,
      "æ¯ıä¸Ģä¸ª": 5470,
      "2019": 5471,
      "çĶ¨æĪ·ä½ĵéªĮ": 5472,
      "äºļé©¬": 5473,
      "æ·±åĪ»çļĦ": 5474,
      "ä¸Ĭä¸ĭæĸĩ": 5475,
      "çļĦäººä»¬": 5476,
      "ä¸Ģä»¶": 5477,
      "ç»ĻæĤ¨": 5478,
      "çĽ¸å¤Ħ": 5479,
      "åģļäºĨ": 5480,
      "æľºåĻ¨åŃ¦ä¹łç®Ĺæ³ķ": 5481,
      "çļĦæıĲé«ĺ": 5482,
      "çļĦç®¡çĲĨ": 5483,
      "åĴ³": 5484,
      "çİ°çĬ¶": 5485,
      "å°±åĥı": 5486,
      "é»ĳæļĹ": 5487,
      "çļĦæķ°åŃĹ": 5488,
      "çļĦçľ¼": 5489,
      "è¿Ļä¸ªéĹ®é¢ĺçļĦçŃĶæ¡Īæĺ¯": 5490,
      "id": 5491,
      "ãĢĤãĢĬ": 5492,
      "ä»¥åħ¶": 5493,
      "å®¶åĽŃ": 5494,
      "æº¯": 5495,
      "å®¢æĪ·æľįåĬ¡": 5496,
      "åĽ¾ä¹¦": 5497,
      "åľ°çĲĥä¸Ĭ": 5498,
      "ĸæģ¯": 5499,
      "è§Ĥçľĭ": 5500,
      "æĪĺæĸĹ": 5501,
      "åĲ«ä¹ī": 5502,
      "çī¹åĪ«æĺ¯åľ¨": 5503,
      "æĹ¶éĹ´åĴĮç²¾åĬĽ": 5504,
      "çļĦæİĴæĶ¾": 5505,
      "äºļé©¬éĢĬ": 5506,
      "éĢļä¿¡": 5507,
      "æĸ¹å¼ıåĴĮ": 5508,
      "éĽĩ": 5509,
      "æĽ´å¤ļçļĦäºº": 5510,
      "è¯Ńè¨Ģæ¨¡åŀĭ": 5511,
      "çªĹ": 5512,
      "®ä¸§": 5513,
      "å¾Ĵ": 5514,
      "å½ĵä½ł": 5515,
      "æİ¥çĿĢ": 5516,
      "çªĥ": 5517,
      "èªīä¸º": 5518,
      "è¯·åĽŀçŃĶéĹ®é¢ĺ": 5519,
      "å¿ĥèĦıçĹħ": 5520,
      "çĴ": 5521,
      "æķ´ä½ĵ": 5522,
      "è¯·éĹ®æĤ¨": 5523,
      "åĲ¯ç¤º": 5524,
      "éĺĲè¿°": 5525,
      "35": 5526,
      "åľ¨åŃ¦ä¹ł": 5527,
      "æľīæ°§": 5528,
      "è¿Ļåľº": 5529,
      "åı¯ä»¥éĢīæĭ©": 5530,
      "å¤©èµĭ": 5531,
      "åĸľçĪ±": 5532,
      "è¯ĬæĸŃåĴĮæ²»çĸĹ": 5533,
      "NA": 5534,
      "æµħ": 5535,
      "è¯·æ±Ĥ": 5536,
      "å·²ç»ıå¼Ģå§ĭ": 5537,
      "å®īåħ¨åĴĮ": 5538,
      "å±ĢéĻĲ": 5539,
      "æĸĩèīº": 5540,
      "é«ĺçº§": 5541,
      "éľĢè¦ģè¿Ľè¡Į": 5542,
      "æģ°": 5543,
      "åıĳå±ķçļĦ": 5544,
      "æĹłæķ°": 5545,
      "è·ŁæĪĳ": 5546,
      "èĩªä¿¡åĴĮ": 5547,
      "Emily": 5548,
      "å¼ºåĮĸ": 5549,
      "æĺ¯ä¸į": 5550,
      "æľĢä¸º": 5551,
      "èĬĤçľģ": 5552,
      "ç®Ģä»ĭ": 5553,
      "è¶ħå¸Ĥ": 5554,
      "æķ°åŃĹè´§å¸ģ": 5555,
      "åľ¨éĤ£éĩĮ": 5556,
      "éľĢè¦ģæĪĳä»¬": 5557,
      "æĺ¾å¾Ĺ": 5558,
      "éĩįåĨĻä¸ĭéĿ¢è¿Ļæ®µæĸĩæľ¬": 5559,
      "æ¯ķç«Ł": 5560,
      "è¦ĨçĽĸ": 5561,
      "å¹¿éĺĶ": 5562,
      "å£¤": 5563,
      "è¿Ļæĺ¯åĽłä¸º": 5564,
      "çļĦæĥ³æ³ķåĴĮ": 5565,
      "åĢ¾åĲĳ": 5566,
      "å±ķçİ°äºĨ": 5567,
      "å¯¹åħ¶": 5568,
      "çĽŁ": 5569,
      "ä¸ĭçļĦ": 5570,
      "æ´»åĬĽ": 5571,
      "å¿ĥçģµ": 5572,
      "å¹¸ç¦ıæĦŁ": 5573,
      "çļĦçĪ¶": 5574,
      "æ¼Ĥäº®": 5575,
      "Ġä½ł": 5576,
      "ä¸įç®¡": 5577,
      "åİ»å¹´": 5578,
      "å¼ķäºº": 5579,
      "å¤´çĹĽ": 5580,
      "è¡Įä¸ļä¸Ń": 5581,
      "èĥĮåĲİ": 5582,
      "æĬ½åıĸ": 5583,
      "80": 5584,
      "im": 5585,
      "ä¸ĢæĿ¯": 5586,
      "å¦Ĩ": 5587,
      "æĭĶ": 5588,
      "å°Ĩç»§ç»Ń": 5589,
      "ä¸ĸçķĮçļĦ": 5590,
      "èħ¿": 5591,
      "æĪĴ": 5592,
      "å¹¶ä¿ĿæĮģ": 5593,
      "æıĲåīį": 5594,
      "åĩºçĶŁ": 5595,
      "éľĢè¦ģåľ¨": 5596,
      "éĢļçŁ¥": 5597,
      "åī©": 5598,
      "æĪĸè®¸": 5599,
      "èĥ½å¤Łå¸®åĬ©": 5600,
      "å¸¦çĿĢ": 5601,
      "ä¸įæĸŃåŃ¦ä¹łåĴĮ": 5602,
      "åħ³æ³¨åĴĮ": 5603,
      "ç²¾åĩĨ": 5604,
      "æľ¬æĸĩä»ĭç»įäºĨ": 5605,
      "ä¸Ģæľ¬": 5606,
      "çī©æµģ": 5607,
      "å¸®ä½ł": 5608,
      "éĢļè¿ĩå¯¹": 5609,
      "è°ĥçłĶ": 5610,
      "å¤±çľł": 5611,
      "æĲħ": 5612,
      "ä»¥éģ¿åħį": 5613,
      "é¢ĨåħĪ": 5614,
      "åīįéĢĶ": 5615,
      "ç»ĵå°¾": 5616,
      "æŃ¥è¡Į": 5617,
      "ç«ĭåį³": 5618,
      "çĶŁæĢģçİ¯å¢ĥ": 5619,
      "ç»Ļåĩºä¸Ģä¸ª": 5620,
      "çīĪæľ¬": 5621,
      "åĴĮå¸Ĥåľº": 5622,
      "æĬ«": 5623,
      "æĥ«": 5624,
      "å¤§çĨĬçĮ«": 5625,
      "çĲĨçĶ±": 5626,
      "æ²®ä¸§": 5627,
      "åĲ¬åıĸ": 5628,
      "å½¢çĬ¶": 5629,
      "ä¼ģä¸ļçļĦ": 5630,
      "è¯¾åłĤ": 5631,
      "çļĦæĭĽ": 5632,
      "ĠéĤ£": 5633,
      "éľĢè¦ģèĢĥèĻĳ": 5634,
      "è¯¥æĸĩç«ł": 5635,
      "æĹ¶éĹ´æĿ¥": 5636,
      "çī¹å®ļçļĦ": 5637,
      "ç²®": 5638,
      "æĻ¯è§Ĥ": 5639,
      "æĶ¶åĪ°": 5640,
      "æĤ£æľī": 5641,
      "ç§ģäºº": 5642,
      "æ·±åħ¥äºĨè§£": 5643,
      "ä¸ļç»©": 5644,
      "æłĩå¿Ĺ": 5645,
      "ä¸ĢåĲįå¹´è½»çļĦ": 5646,
      "åįĹæŀģ": 5647,
      "æ¦Ĥè¿°": 5648,
      "çĭĲçĭ¸": 5649,
      "åĴĮä½¿çĶ¨": 5650,
      "è¿ĺæ²¡æľī": 5651,
      "ç³Ł": 5652,
      "å¤ĸè¯Ń": 5653,
      "æŃ£åľ¨å¯»æī¾": 5654,
      "çŁŃè¯Ń": 5655,
      "åĬŀåħ¬å®¤": 5656,
      "æĺ¨å¤©": 5657,
      "çĶŁæĹ¥": 5658,
      "åģļä»Ģä¹Ī": 5659,
      "ä¼łæī¿": 5660,
      "æŁ¥çľĭ": 5661,
      "æĬķèµĦèĢħ": 5662,
      "èī¯å¥½çļĦæ²ŁéĢļ": 5663,
      "æĺ¥èĬĤ": 5664,
      "è½»æĿ¾åľ°": 5665,
      "æĢĢçĸĳ": 5666,
      "éĻªä¼´": 5667,
      "æĺ¯éĿŀå¸¸": 5668,
      "åı¯ä»¥å°Ĩ": 5669,
      "å¤©çĦ¶": 5670,
      "å¤±æľĽ": 5671,
      "è£ģ": 5672,
      "ç»¼ä¸ĬæīĢè¿°": 5673,
      "çĮª": 5674,
      "è¶ħè¶Ĭ": 5675,
      "æ°ĳæĹı": 5676,
      "å§Ĩæĸ¯": 5677,
      "è¯Ńæ³ķéĶĻè¯¯": 5678,
      "çļĦä¸įæĸŃ": 5679,
      "èĢĮä¸į": 5680,
      "åĽŀçŃĶçŃĶæ¡Ī": 5681,
      "ä¸»è¦ģæĺ¯": 5682,
      "éļıçĿĢç§ĳæĬĢçļĦ": 5683,
      "åĪ¶å®ļè®¡åĪĴ": 5684,
      "ç»ĵæŀľè¡¨æĺİ": 5685,
      "çļĦæĹ¶éĹ´åĴĮ": 5686,
      "æī¿è®¤": 5687,
      "åĴĮç¤¾äº¤": 5688,
      "æĹģ": 5689,
      "ä¹ŁéĿŀå¸¸": 5690,
      "æĬĢæľ¯åľ¨": 5691,
      "éģĵçĲĨ": 5692,
      "äºĨä¸Ģå®¶": 5693,
      "åĽ°æĥĳ": 5694,
      "æĹħæ¸¸æĻ¯çĤ¹": 5695,
      "è®¾è®¡å¸Ī": 5696,
      "å±ħä½ı": 5697,
      "es": 5698,
      "çļĦåĬŁèĥ½": 5699,
      "è¿Ļä½¿å¾Ĺ": 5700,
      "çļĦæ»": 5701,
      "ä¹Łæ²¡æľī": 5702,
      "çŃīå¤ļä¸ª": 5703,
      "éĺµ": 5704,
      "500": 5705,
      "è¿Ļä¹Łæĺ¯": 5706,
      "å¤ļå½©": 5707,
      "æł¹æį®æıĲä¾Ľ": 5708,
      "å·²ç»ıæĪĲä¸ºäºĨ": 5709,
      "åı£ç½©": 5710,
      "åĩĨå¤ĩå¥½": 5711,
      "é¢Ŀå¤ĸ": 5712,
      "åģıå¥½": 5713,
      "è¿Ļé¡¹çłĶç©¶": 5714,
      "å°º": 5715,
      "è´·": 5716,
      "åıĸåĨ³": 5717,
      "åħįè´¹": 5718,
      "åĸĦèī¯": 5719,
      "æķħäºĭæĥħèĬĤ": 5720,
      "çĮ«åĴª": 5721,
      "çļĦæĻ¯çĤ¹": 5722,
      "Ĺæ³ķ": 5723,
      "ä¹Ļ": 5724,
      "ï¼ļ\\": 5725,
      "äºĽä»Ģä¹Ī": 5726,
      "çļĦç±": 5727,
      "åħ¬éĩĮ": 5728,
      "æ·ĭ": 5729,
      "å¼ķåħ¥": 5730,
      "ä¸»è¦ģè§ĤçĤ¹": 5731,
      "æĳ©": 5732,
      "æ¯Ķå¦Ĥè¯´": 5733,
      "æ²Ļæ»©": 5734,
      "åıĸåĨ³äºİ": 5735,
      "çļĦåīį": 5736,
      "æĺ¯ä¸Ģç¯ĩ": 5737,
      "æĳĺ": 5738,
      "è¿Ļä¸ĢçĤ¹": 5739,
      "éĽ¶åĶ®": 5740,
      "çļĦä»·åĢ¼": 5741,
      "å¤®": 5742,
      "åľ¨ä¸Ģå®¶": 5743,
      "å¯¹è±¡": 5744,
      "å¦®": 5745,
      "åĨĻä¸Ģä¸ª": 5746,
      "éŁ§": 5747,
      "æĢĿè·¯": 5748,
      "å®īåħ¨æĢ§": 5749,
      "äº§çĶŁè´ŁéĿ¢å½±åĵį": 5750,
      "è¿½æº¯": 5751,
      "å¤ªç©ºæİ¢ç´¢": 5752,
      "åĨ¬åŃ£": 5753,
      "al": 5754,
      "çļĦåĨ³çŃĸ": 5755,
      "åľ¨è¿Ļç§į": 5756,
      "çĽ²": 5757,
      "æľĢé«ĺ": 5758,
      "åĻª": 5759,
      "æīĵçł´": 5760,
      "é»ĳå®¢": 5761,
      "çĶŁçī©å¤ļæł·æĢ§": 5762,
      "åĨ°å·Ŀ": 5763,
      "æĲħæĭĮ": 5764,
      "çļĦåĩºçİ°": 5765,
      "å·¥èīº": 5766,
      "åĪ¶åĵģ": 5767,
      "ç¾İçļĦ": 5768,
      "ä¼łè®°": 5769,
      "å±Ĥæ¬¡": 5770,
      "ç»ĺçĶ»": 5771,
      "150": 5772,
      "ä¾¦": 5773,
      "æĺİæĻº": 5774,
      "çī©ä½ĵ": 5775,
      "åĽŀæĬ¥": 5776,
      "çļĦäººéĻħ": 5777,
      "ä¸¾åĬŀ": 5778,
      "åĿĩåĮĢ": 5779,
      "èģļä¼ļ": 5780,
      "åĲĦä¸ªé¢ĨåŁŁ": 5781,
      "çļĦè´¨éĩı": 5782,
      "åı¯ä»¥åĩıå°ĳ": 5783,
      "åĳĢ": 5784,
      "éľĢè¦ģåħ·å¤ĩ": 5785,
      "ä¿¡åı·": 5786,
      "ç¨İ": 5787,
      "è¿ĻäºĽæİªæĸ½": 5788,
      "å¯ĮåĲ«": 5789,
      "ç¥ŀå¥ĩ": 5790,
      "æĮĩæłĩ": 5791,
      "å¸ĮæľĽèĥ½å¤Ł": 5792,
      "çĶ¨æĪ·çļĦ": 5793,
      "ä¿®å¤į": 5794,
      "æĸĩåŃ¦ä½ľåĵģ": 5795,
      "å¤ľæĻļ": 5796,
      "æľīæ°§è¿ĲåĬ¨": 5797,
      "70": 5798,
      "çļĦæĽ´": 5799,
      "æĮĤ": 5800,
      "æĪĸåħ¶ä»ĸ": 5801,
      "çľĭæĿ¥": 5802,
      "èĮ«": 5803,
      "éĹ»åĲį": 5804,
      "è®¢åįķ": 5805,
      "çļĦæĶ¹åıĺ": 5806,
      "æĪĳè¦ģ": 5807,
      "åīįæĿ¥": 5808,
      "åģļå¾Ĺ": 5809,
      "è¢«èªīä¸º": 5810,
      "åĲĦèĩª": 5811,
      "èģĮè´£": 5812,
      "è¶ĬæĿ¥è¶Ĭå¤ļçļĦäººå¼Ģå§ĭ": 5813,
      "è¦ģç´ł": 5814,
      "è¿ĩäºĨ": 5815,
      "åĪĨæķ£": 5816,
      "æıĲä¾ĽæĽ´å¥½çļĦ": 5817,
      "äººå·¥æĻºèĥ½åľ¨åĮ»çĸĹ": 5818,
      "çģ°": 5819,
      "çģ«æĺŁ": 5820,
      "çĸ²æĥ«": 5821,
      "ä¸İæŃ¤åĲĮæĹ¶": 5822,
      "Ġ3": 5823,
      "è¿Ļå¯¹": 5824,
      "ä¹Łå°Ĩ": 5825,
      "åħ³éĶ®åŃĹ": 5826,
      "å¤±èĲ½": 5827,
      "åĵªç§į": 5828,
      "æ¶ĪéĻ¤": 5829,
      "æĭ¥åłµ": 5830,
      "çļĦæĥħèĬĤ": 5831,
      "èīºæľ¯åĵģ": 5832,
      "çļĦæ¸ħ": 5833,
      "åħħè¶³çļĦçĿ¡çľł": 5834,
      "BC": 5835,
      "çļĦå°ıè¯´": 5836,
      "æĪĳæĦŁè§ī": 5837,
      "å¿į": 5838,
      "æĮĳ": 5839,
      "å¾Īå®¹æĺĵ": 5840,
      "æĶ¶ä»¶äºº": 5841,
      "æĬĢå·§åĴĮ": 5842,
      "åĿļæĮģä¸įæĩĪ": 5843,
      "éĢĶä¸Ń": 5844,
      "åľ¨å®¶ä¸Ń": 5845,
      "ie": 5846,
      "çļĦåĲĹ": 5847,
      "æĪĳå°Ĩ": 5848,
      "åĨħçļĦ": 5849,
      "åĬłå¯Ĩ": 5850,
      "éĤ£ç§į": 5851,
      "åħħå®ŀ": 5852,
      "æĪ¿åŃĲ": 5853,
      "åĦ¿åŃĲ": 5854,
      "çĹĽèĭ¦": 5855,
      "ä¸ªä½ĵ": 5856,
      "é¢ĸ": 5857,
      "å¹¶éĢļè¿ĩ": 5858,
      "å°ıåŃ¦": 5859,
      "åĩºåİ»": 5860,
      "è¿Ĳè¾ĵ": 5861,
      "ä»»åĬ¡ä¸Ń": 5862,
      "æ¶Īå¤±": 5863,
      "ãĢĭãĢĤ": 5864,
      "åģļåĩºè´¡çĮ®": 5865,
      "çļĦæŃĮ": 5866,
      "ç¢³æİĴæĶ¾": 5867,
      "ĠĊĊ": 5868,
      "å®¾": 5869,
      "æĪĳå¾Īé«ĺåħ´": 5870,
      "æľĢåĸľæ¬¢": 5871,
      "ä½ĨæĪĳä»¬": 5872,
      "æĥ³åĪ°": 5873,
      "æł¹æľ¬": 5874,
      "å¼ºçļĦ": 5875,
      "é¥±": 5876,
      "äº§åĵģåĴĮæľįåĬ¡": 5877,
      "åıĶ": 5878,
      "äºĨæĪĳ": 5879,
      "ç¨į": 5880,
      "åħħçĶµ": 5881,
      "éĿ¢ä¸´çļĦ": 5882,
      "å¤įæĿĤçļĦ": 5883,
      "åģıè§ģ": 5884,
      "çļĦçĭĹ": 5885,
      "ä¸Ģéĥ¨åĪĨ": 5886,
      "åĲĲ": 5887,
      "æĪĳä»¬åħ¬åı¸çļĦ": 5888,
      "éĶģ": 5889,
      "åıįå¯¹": 5890,
      "æĶ¶çĽĬ": 5891,
      "çİĭæĺİ": 5892,
      "æ²ŁéĢļåĴĮ": 5893,
      "åĩıè½»åİĭåĬĽ": 5894,
      "å¥ĸåĬ±": 5895,
      "èĵĿèī²": 5896,
      "ãĢĤï¼Ī": 5897,
      "å¦¥": 5898,
      "å¤§å°ı": 5899,
      "çĲĨæĢ§": 5900,
      "èĤł": 5901,
      "åıĹä¼¤": 5902,
      "ä¸ĵä¸ļäººå£«": 5903,
      "åľŁå£¤": 5904,
      "åĪ°æĿ¥": 5905,
      "ä¹Łä¸º": 5906,
      "ä¸Ģä½įå¹´è½»": 5907,
      "é£ŀæľº": 5908,
      "èĶ¬èıľåĴĮ": 5909,
      "âĢ¦âĢ¦": 5910,
      "åľ¨è¿Ļæ®µå¯¹è¯Ŀä¸Ń": 5911,
      "åºĻ": 5912,
      "æĢĴ": 5913,
      "èĤĿ": 5914,
      "å»ºéĢł": 5915,
      "åīįè¿Ľ": 5916,
      "åĩıèĤ¥": 5917,
      "ä¸Ģæ®µæĹ¶éĹ´": 5918,
      "çĸĳéĹ®": 5919,
      "æ¹¾": 5920,
      "åĨłåĨĽ": 5921,
      "çļĦæ¶Īè´¹": 5922,
      "çļĦæľĭåıĭ": 5923,
      "åĪĨè§£": 5924,
      "è¢«è§Ĩä¸º": 5925,
      "éŁ©": 5926,
      "æķ°æį®çļĦ": 5927,
      "æ£ĭ": 5928,
      "äº²çĪ±çļĦ": 5929,
      "éĢļå¸¸ä¼ļ": 5930,
      "æµªæ¼«": 5931,
      "çļĦç®Ĺæ³ķ": 5932,
      "åĴĮæľªæĿ¥": 5933,
      "ä¸Ģéĥ¨": 5934,
      "äºĨèĩªå·±çļĦ": 5935,
      "æĿ¨": 5936,
      "æĪĳä»¬æīįèĥ½": 5937,
      "ä¸ĸçķĮä¸Ń": 5938,
      "å¥³åĦ¿": 5939,
      "è¶ħçº§": 5940,
      "çīĩæ®µ": 5941,
      "ä½łæľīæ²¡æľī": 5942,
      "ä¹Łæĺ¯ä¸Ģä¸ª": 5943,
      "éĿ¢ç§¯": 5944,
      "æıĲä¾ĽæĽ´": 5945,
      "èº«ä½ĵçĬ¶åĨµ": 5946,
      "éļ¾åº¦": 5947,
      "è¯¯è§£": 5948,
      "æľºåĻ¨åŃ¦ä¹łåĴĮ": 5949,
      "æŁĲç§į": 5950,
      "ç¹ģå¿Ļ": 5951,
      "ä»ĸå¯¹": 5952,
      "èĢĮåľ¨": 5953,
      "èıľåįķ": 5954,
      "ä»İèĢĮæıĲé«ĺ": 5955,
      "ä¾ĿçĦ¶": 5956,
      "å°¼åħĭ": 5957,
      "èĴ¸": 5958,
      "èĢĲå¿ĥåĴĮ": 5959,
      "æĬĳéĥģçĹĩ": 5960,
      "æĪ·å¤ĸæ´»åĬ¨": 5961,
      "æľīä½ķ": 5962,
      "æĿ¥äºĨ": 5963,
      "æģ¼": 5964,
      "éĩıåĴĮ": 5965,
      "å¸®åĬ©ä»ĸä»¬": 5966,
      "æ°´åĴĮ": 5967,
      "æĢ»ä½ĵ": 5968,
      "äºĨä¸Ģç³»åĪĹ": 5969,
      "æĿĤå¿Ĺ": 5970,
      "å£°èªī": 5971,
      "è½¯ä»¶å·¥ç¨ĭå¸Ī": 5972,
      "çļĦç½ĳç»ľ": 5973,
      "çļĦç¡®": 5974,
      "ĸæģ¯åľ°": 5975,
      "CEO": 5976,
      "çļĦæĹ¥": 5977,
      "è¯Ī": 5978,
      "æī£": 5979,
      "æ¯ıä¸ªäººéĥ½åºĶè¯¥": 5980,
      "æĳĨèĦ±": 5981,
      "åħ¼": 5982,
      "æľīå®³": 5983,
      "åĩŃ": 5984,
      "ä½Ĩå®ĥä»¬": 5985,
      "åī²": 5986,
      "ä¹ĭä¸Ģæĺ¯": 5987,
      "è½¯ä»¶å¼Ģåıĳ": 5988,
      "çļĦç½ĳç«Ļ": 5989,
      "çģŃç»Ŀ": 5990,
      "ĠæĪĳä»¬": 5991,
      "çĶĺ": 5992,
      "ç«¹": 5993,
      "æ®ĭ": 5994,
      "å¼ºåº¦": 5995,
      "äººå·¥æĻºèĥ½é¢ĨåŁŁ": 5996,
      "æľįè£ħ": 5997,
      "æ»´": 5998,
      "æ¼ł": 5999,
      "ä»ħä»ħ": 6000,
      "æĢİä¹Īåģļ": 6001,
      "å¥½åĲ§": 6002,
      "æİª": 6003,
      "å¤§æ¦Ĥ": 6004,
      "èĩªå·±çļĦæ¢¦æĥ³": 6005,
      "éĶĲ": 6006,
      "æĸĩç«łæłĩé¢ĺ": 6007,
      "åĨ³å¿ĥ": 6008,
      "åĲ¸å¼ķåĬĽ": 6009,
      "è´¢äº§": 6010,
      "...": 6011,
      "å¯»æ±Ĥå¸®åĬ©": 6012,
      "éģŃåıĹ": 6013,
      "çĽ¸åºĶçļĦ": 6014,
      "çļĦæľīæķĪ": 6015,
      "æĺ¯å¾Ī": 6016,
      "ä¸ºä¸»": 6017,
      "è¡·": 6018,
      "åı¯ä»¥æĽ´å¥½åľ°": 6019,
      "çļĦçĮ": 6020,
      "æ²ĥ": 6021,
      "åĺ¿": 6022,
      "è°·æŃĮ": 6023,
      "æł¹æį®ç»Ļå®ļçļĦæĸĩæľ¬": 6024,
      "çļĦæ³ķå¾ĭ": 6025,
      "Sarah": 6026,
      "äººç¾¤": 6027,
      "æĦŁæģ©": 6028,
      "æĹłèģĬ": 6029,
      "åħ¨çĲĥæ°ĶåĢĻåıĺåĮĸ": 6030,
      "çļĦç¾İä¸½": 6031,
      "ä¿¡ä»»åĴĮ": 6032,
      "æľīä¸Ģå¤©": 6033,
      "çļĦè§ĤçĤ¹": 6034,
      "çĪ½": 6035,
      "é¢ĦæľŁ": 6036,
      "åĽ´ç»ķ": 6037,
      "åĪĿä¸Ń": 6038,
      "çļĦæ°ĽåĽ´": 6039,
      "æĽ´å¿«åľ°": 6040,
      "ä¼ĺåħĪçº§": 6041,
      "çļĦäºĨè§£": 6042,
      "åı¯ä»¥è®©æĪĳä»¬": 6043,
      "æķ°æį®éļĲç§ģ": 6044,
      "çļĦäººæĿ¥è¯´": 6045,
      "åı¯ä»¥è®©ä½ł": 6046,
      "åı¤èĢģçļĦ": 6047,
      "çļĦç±»": 6048,
      "å¹¶ä½¿çĶ¨": 6049,
      "æĤ¨åľ¨": 6050,
      "åŃ¦ä¹łç¼ĸç¨ĭ": 6051,
      "éļıçĿĢæĬĢæľ¯çļĦ": 6052,
      "èĳ¡": 6053,
      "çĨŁç»ĥ": 6054,
      "è¯¸å¤ļ": 6055,
      "éĴ¢çĲ´": 6056,
      "çļĦæĤ": 6057,
      "çļĦçĻ": 6058,
      "ä»¥ä¸ĭæ®µèĲ½": 6059,
      "å¥³çĶŁ": 6060,
      "æĪĳåľ¨é¢Ħè®Ńç»ĥæĹ¶": 6061,
      "åħļ": 6062,
      "æıĴ": 6063,
      "å¦Ĥä½ķåºĶå¯¹": 6064,
      "è§Ĵèī²ä»ĭç»į": 6065,
      "ä»½é¢Ŀ": 6066,
      "çĶµåŃĲäº§åĵģ": 6067,
      "å°ĸ": 6068,
      "å½±åĥı": 6069,
      "åĲĳéĩı": 6070,
      "æİ¢æµĭ": 6071,
      "é¦ĸåħĪè¦ģ": 6072,
      "èŃ¦æĸ¹": 6073,
      "çĽĳæİ§": 6074,
      "é¢ĳçİĩ": 6075,
      "åĮ¹éħį": 6076,
      "æĪĳæľī": 6077,
      "å½ĵæĪĳ": 6078,
      "è®ºçĤ¹": 6079,
      "æ·±åĳ¼åĲ¸": 6080,
      "ä¿ĿæĮģåģ¥åº·çļĦ": 6081,
      "èįĴ": 6082,
      "å®¢æĪ·éľĢæ±Ĥ": 6083,
      "èħ¹": 6084,
      "çļĦç¤¼": 6085,
      "åħįçĸ«ç³»ç»Ł": 6086,
      "éĻĪè¿°": 6087,
      "åĴĮçĶŁæ´»": 6088,
      "ç»Ļèĩªå·±": 6089,
      "å½±åĵįäºĨ": 6090,
      "æķĻè®Ń": 6091,
      "åĸľå¥½": 6092,
      "åĲ¦åĪĻ": 6093,
      "åĬ¨æľº": 6094,
      "åĪĽæĸ°çļĦ": 6095,
      "éĢīæīĭ": 6096,
      "æĪĳä»¬çļĦåħ¬åı¸": 6097,
      "çłĶç©¶åıĳçİ°": 6098,
      "è¯Ńæ³ķåĴĮ": 6099,
      "è´¸æĺĵ": 6100,
      "çļĦèģĮä¸ļ": 6101,
      "çŃīå¤ļç§į": 6102,
      "èĲĦ": 6103,
      "èĻİ": 6104,
      "ä¸Ģæ®µæĸĩæľ¬": 6105,
      "é»Ħèī²": 6106,
      "è®²è¿°äºĨä¸Ģä¸ª": 6107,
      "èĳ¡èĲĦ": 6108,
      "ä¸įåºĶè¯¥": 6109,
      "å¯¹ç¤¾ä¼ļ": 6110,
      "ä½ľä¸ļ": 6111,
      "æ¯ħåĬĽ": 6112,
      "äºĭåĬ¡": 6113,
      "å¤ĸéĥ¨": 6114,
      "è§ģéĿ¢": 6115,
      "çıĬ": 6116,
      "åľ°çĲĥçļĦ": 6117,
      "èĩªçĦ¶è¯Ńè¨Ģå¤ĦçĲĨæĬĢæľ¯": 6118,
      "ç¼ĸåĨĻä¸Ģä¸ª": 6119,
      "ch": 6120,
      "ä¸Ńåįİ": 6121,
      "åı¯ä»¥æł¹æį®": 6122,
      "å¤ļåĲĥ": 6123,
      "ä¹Łåı¯èĥ½": 6124,
      "æĤŁ": 6125,
      "ç±»çļĦ": 6126,
      "è¯·éļıæĹ¶": 6127,
      "ä¸ªäººéļĲç§ģ": 6128,
      "çĬ¹": 6129,
      "ãĢĭï¼Į": 6130,
      "æĳĦå½±": 6131,
      "åĪĢ": 6132,
      "æĺ¯æľī": 6133,
      "å¯ĵ": 6134,
      "å¼Ĭ": 6135,
      "åĩºåıĳ": 6136,
      "çļĦçĦ": 6137,
      "ç¼ĺ": 6138,
      "é²¸": 6139,
      "åįıè®®": 6140,
      "èľĤ": 6141,
      "å¤±åİ»äºĨ": 6142,
      "éªĳèĩªè¡Įè½¦": 6143,
      "æ§": 6144,
      "åŃ¦ä¸ļ": 6145,
      "å¹¶æł¹æį®": 6146,
      "é«ĺéĢŁ": 6147,
      "çĸı": 6148,
      "èº«ä¸Ĭ": 6149,
      "ç½ļ": 6150,
      "åĲ¸çĥŁ": 6151,
      "æĸ¯åĿ¦": 6152,
      "å¾®ä¿¡": 6153,
      "å¡ĳæĸĻè¢ĭ": 6154,
      "äº¿ç¾İåħĥ": 6155,
      "åĮºåĿĹéĵ¾æĬĢæľ¯": 6156,
      "çļĦä¸įåĲĮ": 6157,
      "çļĦåħ·ä½ĵ": 6158,
      "åĴĮå®¶äºº": 6159,
      "æĪĳä¸įçŁ¥éģĵ": 6160,
      "æĹ¦": 6161,
      "åĵĩ": 6162,
      "åĬłä¸Ĭ": 6163,
      "å¤ĸæĺŁ": 6164,
      "æł¹æį®ç»Ļå®ļ": 6165,
      "èĩªçĦ¶èµĦæºĲ": 6166,
      "è¿ľç¦»": 6167,
      "æ¼«çĶ»": 6168,
      "æķĳæı´": 6169,
      "åĨľæ°ĳ": 6170,
      "æľŁå¾ħçĿĢ": 6171,
      "æĬĵä½ı": 6172,
      "æĪĳæ²¡æľī": 6173,
      "æłĩè®°": 6174,
      "èº«ä½ĵçļĦ": 6175,
      "é»ĳèī²": 6176,
      "ä½łä»¬çļĦ": 6177,
      "çļĦæłĩé¢ĺ": 6178,
      "éº»çĥ¦": 6179,
      "æ¡Ĩæŀ¶": 6180,
      "Ĳå°Ħ": 6181,
      "ä¸Ģå¼ł": 6182,
      "åľ¨æŁĲäºĽ": 6183,
      "åľ¨å·¥ä½ľä¸Ń": 6184,
      "äºĨåĲĹ": 6185,
      "åı¯è¯»": 6186,
      "ä¸ºåħ¬åı¸": 6187,
      "åį¢": 6188,
      "è¾Ĳå°Ħ": 6189,
      "åĢ¡": 6190,
      "éĩįè¦ģä½ľçĶ¨": 6191,
      "èĪį": 6192,
      "å½¢æĢģ": 6193,
      "åħ´è¶£åĴĮ": 6194,
      "å¾·åĽ½": 6195,
      "ä¼¦æķ¦": 6196,
      "åĪ¶éĢłä¸ļ": 6197,
      "çıįè´µ": 6198,
      "çļĦæįŁ": 6199,
      "28": 6200,
      "åĴĮèµĦæºĲ": 6201,
      "åĲĪä½ľä¼Ļä¼´": 6202,
      "çļĦæĭħ": 6203,
      "å¤§å¤ļæķ°äºº": 6204,
      "ä¼į": 6205,
      "å¤ļå¹´çļĦ": 6206,
      "åĨħåľ¨": 6207,
      "èĬ¬": 6208,
      "æĺ¯ä¸Ģä»¶": 6209,
      "ç§ĳåĮ»çĶŁ": 6210,
      "éĤ£æł·": 6211,
      "è¯ķçĿĢ": 6212,
      "è½»æĺĵ": 6213,
      "å®ŀçİ°äºĨ": 6214,
      "¬éĹ´": 6215,
      "éĥ½è¦ģ": 6216,
      "æīĢè°ĵ": 6217,
      "æĹ¶éĹ´è¡¨": 6218,
      "è¢Ń": 6219,
      "å¹¶ä¸Ķåľ¨": 6220,
      "æĹħæ¸¸ä¸ļ": 6221,
      "ç«ŀæĬĢ": 6222,
      "ç»Ļå®ļä¸Ģç¯ĩæĸĩç«ł": 6223,
      "çļĦçĦ¦": 6224,
      "æĿ¥åĩıå°ĳ": 6225,
      "ä¹Łè¶ĬæĿ¥è¶Ĭ": 6226,
      "å±ķè§Ī": 6227,
      "æ¶Ĥ": 6228,
      "éĽķ": 6229,
      "çłĶç©¶åĴĮ": 6230,
      "çļĦéĩįè¦ģåĽłç´ł": 6231,
      "æ¯įäº²": 6232,
      "èĸĦ": 6233,
      "äººå¿ĥ": 6234,
      "è¿Ļåı¥è¯Ŀ": 6235,
      "èĩªåŃ¦": 6236,
      "æľ¬ç§ĳ": 6237,
      "è¿ĺèĥ½å¤Ł": 6238,
      "éĢĤåº¦": 6239,
      "ä¸įæĺ¯å¾Ī": 6240,
      "åľ¨æĪĳä»¬": 6241,
      "äºĨä¸Ģç§į": 6242,
      "æĽ´åĬłé«ĺæķĪ": 6243,
      "æľĢè¿ĳåľ¨": 6244,
      "æĥħæĦŁåĪĨæŀĲ": 6245,
      "åĢ¼å¾Ĺä¸Ģ": 6246,
      "æ¾³": 6247,
      "è´¦æĪ·": 6248,
      "çļĦçĲĨè§£": 6249,
      "åĪł": 6250,
      "æľīæľĽ": 6251,
      "ä¸ºæŃ¤": 6252,
      "ä¸ĭåĳ¨": 6253,
      "æĤ¬": 6254,
      "æĺİäºĨ": 6255,
      "å¹´åīį": 6256,
      "éļıæľº": 6257,
      "åĪĽéĢłåĩº": 6258,
      "èħĲ": 6259,
      "åģĩæľŁ": 6260,
      "æł¹æį®ä»¥ä¸ĭæĸĩæľ¬": 6261,
      "Ġè¿Ļä¸ª": 6262,
      "çļĦè§Ĵèī²": 6263,
      "éĹ¹": 6264,
      "åĬłå·¥": 6265,
      "ä¸İå®¶äºº": 6266,
      "æ²¡éĶĻ": 6267,
      "æ·±åİļ": 6268,
      "æ¡Īä¾ĭ": 6269,
      "å®¶åºŃæĪĲåĳĺ": 6270,
      "æŃĮæĽ²": 6271,
      "èī¯å¥½çļĦçĿ¡çľł": 6272,
      "èµ¢å¾ĹäºĨ": 6273,
      "çļĦæŃ¥éª¤": 6274,
      "ABC": 6275,
      "æĪĳåĲĮæĦı": 6276,
      "æī«": 6277,
      "åĪ°çļĦ": 6278,
      "ä¾£": 6279,
      "æįĲ": 6280,
      "æĺİå¤©": 6281,
      "å®ŀåĬĽ": 6282,
      "ç©ºæ°Ķæ±¡æŁĵ": 6283,
      "çļĦæĢ§æł¼": 6284,
      "è¦ģåŃ¦ä¼ļ": 6285,
      "å¾¡": 6286,
      "åĬ¨æĢģ": 6287,
      "è®¡åĪĴåĴĮ": 6288,
      "ç»Ŀå¯¹": 6289,
      "åľ¨åŃ¦æł¡": 6290,
      "æĽ´æľīæķĪåľ°": 6291,
      "å°ıå¿ĥ": 6292,
      "åĪĨåŃĲ": 6293,
      "ä½¿çĶ¨ç¤¾äº¤åªĴä½ĵ": 6294,
      "ç»ĵäº¤": 6295,
      "è¿ĺæľīåħ¶ä»ĸ": 6296,
      "è¡¨è¾¾èĥ½åĬĽ": 6297,
      "çļĦæĶ¿": 6298,
      "åįłæį®": 6299,
      "åĴĮä»·åĢ¼è§Ĥ": 6300,
      "æķĪçĽĬ": 6301,
      "åģļæ³ķ": 6302,
      "ä½ľä¸ºä¸ĢåĲį": 6303,
      "æķıæĦŁ": 6304,
      "æĬ±æŃī": 6305,
      "çī©çĲĨåŃ¦": 6306,
      "ĠC": 6307,
      "çļĦä¼ĺåĬ¿": 6308,
      "äººåĴĮ": 6309,
      "åİī": 6310,
      "å¤´èĦĳ": 6311,
      "æıĲä¾ĽäºĨä¸ĢäºĽ": 6312,
      "åĪĿåĪĽ": 6313,
      "èĥľåľ°": 6314,
      "ç¼ĵè§£åİĭåĬĽ": 6315,
      "æļ´åĬĽ": 6316,
      "æĪĳè¯¥": 6317,
      "ä½ľæģ¯": 6318,
      "çŃīåĽłç´ł": 6319,
      "å¼ĢæľĹ": 6320,
      "å¸Ĥä¸Ńå¿ĥ": 6321,
      "æĳĩ": 6322,
      "åĪĽéĢłåĬĽåĴĮ": 6323,
      "çĳŁ": 6324,
      "åºŁå¼ĥ": 6325,
      "æĦıå¤§åĪ©éĿ¢": 6326,
      "è©¹": 6327,
      "çļĦåĴĸåķ¡": 6328,
      "æĺ¯èĩ³åħ³éĩįè¦ģçļĦ": 6329,
      "å¾Īä¸įéĶĻ": 6330,
      "è¿ĺåľ¨": 6331,
      "éļĨ": 6332,
      "ä¸İå®¢æĪ·": 6333,
      "åŃ¦ä¹łçļĦ": 6334,
      "ä¸įä»ħæĺ¯": 6335,
      "åŃĺåľ¨çļĦ": 6336,
      "åĮĹæŀģ": 6337,
      "è°ĪåĪ¤": 6338,
      "å°½åı¯èĥ½åľ°": 6339,
      "æ¸´æľĽ": 6340,
      "ace": 6341,
      "æľīåı¯èĥ½": 6342,
      "è¿Ļä»¶": 6343,
      "åĸ»": 6344,
      "åħ¬åı¸å·¥ä½ľ": 6345,
      "åº·å¤į": 6346,
      "ä»İæľª": 6347,
      "ä¸ĢçĽ´æĺ¯": 6348,
      "çĽ¸ä¿¡èĩªå·±": 6349,
      "æ°§æ°Ķ": 6350,
      "åħħåĪĨåĪ©çĶ¨": 6351,
      "å®ĹæķĻ": 6352,
      "çļĦåĽłç´ł": 6353,
      "ä¸įäºĨ": 6354,
      "ä½łçŁ¥éģĵ": 6355,
      "ç»ıåİĨäºĨ": 6356,
      "199": 6357,
      "çĩ¥": 6358,
      "åĿĲåľ¨": 6359,
      "ä»¥ä¸ĭåĩłçĤ¹": 6360,
      "åĴĮçłĶç©¶": 6361,
      "åĪ¸": 6362,
      "åľ¨æĪĳä»¬çļĦ": 6363,
      "å¯¹æŃ¤": 6364,
      "ä¸ĬçıŃ": 6365,
      "æµĭéĩı": 6366,
      "äºĨä¸Ģåľº": 6367,
      "å¢ŀåĬłäºĨ": 6368,
      "äº²å¯Ĩ": 6369,
      "æĮīæĹ¶": 6370,
      "å´ĩ": 6371,
      "çļĦæ½ľåľ¨": 6372,
      "va": 6373,
      "åĴĮèĶ¬èıľ": 6374,
      "æĪĳæĺİçĻ½äºĨ": 6375,
      "åľ¨æĹ¥å¸¸çĶŁæ´»ä¸Ń": 6376,
      "ä¼ı": 6377,
      "ä¸įå¦Ĥ": 6378,
      "åĩĿ": 6379,
      "æĻķ": 6380,
      "è¯´è¯Ŀ": 6381,
      "å»ºç«ĭèģĶç³»": 6382,
      "é¸Ń": 6383,
      "åĹ½": 6384,
      "å®ŀéªĮå®¤": 6385,
      "å¥¥è¿Ĳ": 6386,
      "åĴ³åĹ½": 6387,
      "è¿½æº¯åĪ°": 6388,
      "çļĦå¹´è½»äºº": 6389,
      "åľ¨ç¤¾äº¤åªĴä½ĵä¸Ĭ": 6390,
      "ä»¥åĩıå°ĳ": 6391,
      "ä½Ĩè¿Ļ": 6392,
      "æĦŁæĥħ": 6393,
      "èĬĿ": 6394,
      "åıĹçĽĬ": 6395,
      "ç²Ĵ": 6396,
      "å¸ĮæľĽèĥ½": 6397,
      "åĳ¨æľŁ": 6398,
      "ç«ŀäºīæ¿ĢçĥĪ": 6399,
      "çļĦéľĢæ±ĤåĴĮ": 6400,
      "æĭĸå»¶çĹĩ": 6401,
      "ä¸Ģä»£": 6402,
      "å·¥èµĦ": 6403,
      "çļĦçı": 6404,
      "æ°ı": 6405,
      "è¾Ī": 6406,
      "èĩªå·±çļĦæĥħç»ª": 6407,
      "è¯·åĳĬè¯īæĪĳ": 6408,
      "ç¥ĸ": 6409,
      "å¼ķåĬĽ": 6410,
      "æľĢè¿ĳæĪĳ": 6411,
      "éĩįè¦ģçļĦè§Ĵèī²": 6412,
      "èĩ³äºİ": 6413,
      "æ¯ıä¸ªäººéĥ½æľī": 6414,
      "%ãĢĤ": 6415,
      "çļĦè¦ģæ±Ĥ": 6416,
      "çļĦä¼ĺçĤ¹": 6417,
      "åħ½": 6418,
      "åĴĮæĬĢå·§": 6419,
      "ä¸Ĭåİ»": 6420,
      "éĿ¢çļĦ": 6421,
      "æĦŁçŁ¥": 6422,
      "åĪ«äººçļĦ": 6423,
      "ä½łçļĦåĲįåŃĹ": 6424,
      "æĽ´å¥½åľ°åºĶå¯¹": 6425,
      "çļĦæķ°åŃ¦": 6426,
      "åĩłä¸ªæľĪ": 6427,
      "ä¸¥éĩįçļĦ": 6428,
      "çĿ¡çľłè´¨éĩı": 6429,
      "æĭįæĳĦ": 6430,
      "Ħæ¦": 6431,
      "åĴĮç»Ħç»ĩ": 6432,
      "ä»¥æŃ¤": 6433,
      "ä¸įåĸľæ¬¢": 6434,
      "æĥķ": 6435,
      "ä¼ļä¸įä¼ļ": 6436,
      "åľ°ä¸Ĭ": 6437,
      "æĶĢ": 6438,
      "æ·±æ·±": 6439,
      "æĽ´åĬłæ³¨éĩį": 6440,
      "äºĨè§£åĨ³": 6441,
      "é¢Ħè®¢": 6442,
      "å¤įä¹ł": 6443,
      "äºĨä¸Ģæ¬¡": 6444,
      "å®¶åºŃæķĻèĤ²": 6445,
      "è¡¨çİ°åĩºèī²": 6446,
      "èŃ¦æĥķ": 6447,
      "æĳĺè¦ģåĨħå®¹": 6448,
      "å»ºçŃĳçī©": 6449,
      "æīĢéľĢçļĦ": 6450,
      "ä¹Ķæ²»": 6451,
      "Ħæ¦Ħ": 6452,
      "åľ¨çİ°ä»£": 6453,
      "å®ŀæĹ¶": 6454,
      "æ¶Į": 6455,
      "ä¸ªäººåĵģçīĮ": 6456,
      "åįķä½į": 6457,
      "å®īåħ¨éĹ®é¢ĺ": 6458,
      "ä½ľä¸ºä¸Ģç§į": 6459,
      "èħ¾": 6460,
      "çģ¾éļ¾": 6461,
      "æķ¬ç¤¼": 6462,
      "é½Ĳ": 6463,
      "ĠB": 6464,
      "çļĦå¹´è½»": 6465,
      "æľºæ¢°": 6466,
      "å°Ĩå®ĥä»¬": 6467,
      "ä¸İåĲĮäºĭ": 6468,
      "ç³Ĭ": 6469,
      "è¯¥æĸĩæľ¬": 6470,
      "åħ¨éĥ¨": 6471,
      "åħ¨æĸ°çļĦ": 6472,
      "éĤ»": 6473,
      "ç´«": 6474,
      "æĽ´å¤ļåľ°": 6475,
      "ç²¾å½©": 6476,
      "è¾ĥé«ĺ": 6477,
      "éļıçĿĢæĹ¶éĹ´": 6478,
      "å¥ĩæĢª": 6479,
      "åı¯éĿłæĢ§": 6480,
      "ç³Łç³ķ": 6481,
      "åĴĮæĶ¾æĿ¾": 6482,
      "ä¸ĢéĹ¨": 6483,
      "è¦ģæĥ³": 6484,
      "åı¯çĪ±": 6485,
      "ä½łæĥ³": 6486,
      "å¾Īå°ĳ": 6487,
      "åĬłå¿«": 6488,
      "ä¹ĭæĹħ": 6489,
      "éĥ½æ²¡æľī": 6490,
      "è¯´æľį": 6491,
      "çİ¯èĬĤ": 6492,
      "çĭ®": 6493,
      "æ»¤": 6494,
      "åĲ¬åĲ¬": 6495,
      "èį·": 6496,
      "æİ¥è¿ĳ": 6497,
      "æİĴåĲį": 6498,
      "è¿Ļæł·æīįèĥ½": 6499,
      "è£ħé¥°": 6500,
      "èĭ±è¯Ńåı£è¯Ń": 6501,
      "Ġå¦Ĥæŀľ": 6502,
      "è¿ģ": 6503,
      "çĶŁæ´»ä¹łæĥ¯": 6504,
      "åħ¬åı¸åľ¨": 6505,
      "å¸¦æĿ¥æĽ´å¤ļçļĦ": 6506,
      "çĽ®æłĩæĺ¯": 6507,
      "çļĦä¸»è¦ģè§ĤçĤ¹": 6508,
      "æķ°åŃĹåĮĸè½¬åŀĭ": 6509,
      "åĢĴåħ¥": 6510,
      "åĴĮèĩªæĪĳ": 6511,
      "åĴĮæĶ¹è¿Ľ": 6512,
      "çĶŁæĦı": 6513,
      "çĲĲ": 6514,
      "é«ĺæ¸©": 6515,
      "çŃīæĬĢæľ¯": 6516,
      "éŁ³ä¹ĲåĴĮ": 6517,
      "åĪĨç±»åĻ¨": 6518,
      "è¿Ļæĺ¯æĪĳ": 6519,
      "èµ°åĲĳ": 6520,
      "è°¢è°¢ä½łçļĦå»ºè®®": 6521,
      "ä¹Łå¾Īéĩįè¦ģ": 6522,
      "çļĦç©ºéĹ´": 6523,
      "çļĦè´£ä»»": 6524,
      "åľ¨åŁİå¸Ĥ": 6525,
      "ä¸įåľ¨": 6526,
      "ä¸įå¿ħè¦ģçļĦ": 6527,
      "åĩĮ": 6528,
      "åı¯ä»¥ä¿ĥè¿Ľ": 6529,
      "ä»ĸå¼Ģå§ĭ": 6530,
      "ä¹Łèĥ½å¤Ł": 6531,
      "å°ĨæĿ¥": 6532,
      "åīĳ": 6533,
      "é»Ľ": 6534,
      "åı¯èĥ½ä¼ļå¯¹": 6535,
      "å¿ħä¸įåı¯å°ĳçļĦ": 6536,
      "ä¸įèĪĴæľį": 6537,
      "æĢ»ç»Ł": 6538,
      "æŀĦæĪĲ": 6539,
      "ç»ıæµİåıĳå±ķ": 6540,
      "æĬĢæľ¯çļĦåºĶçĶ¨": 6541,
      "æ²īæµ¸": 6542,
      "å®ģéĿĻ": 6543,
      "åį§": 6544,
      "è¿ĽåĮĸ": 6545,
      "ä¸»æ¼Ķ": 6546,
      "ä¹ĭä¸Ń": 6547,
      "çĭ¼": 6548,
      "åıªéľĢè¦ģ": 6549,
      "äºļæ´²": 6550,
      "ç¨³å®ļçļĦ": 6551,
      "å¤º": 6552,
      "åĴĮå¹³": 6553,
      "çĽĪ": 6554,
      "å¹¶éĿŀ": 6555,
      "å½±åĵįåĪ°": 6556,
      "å¥¹åľ¨": 6557,
      "äºĨè§£ä¸Ģä¸ĭ": 6558,
      "çĶµå½±çļĦ": 6559,
      "è¿ĲåĬ¨åĴĮ": 6560,
      "æķĻèĤ²åĴĮ": 6561,
      "ä¸įåı¯éģ¿åħį": 6562,
      "çīĽèĤī": 6563,
      "é¸¡èĤī": 6564,
      "äººéĻħäº¤å¾Ģ": 6565,
      "çĵľ": 6566,
      "åĽ¾ä¹¦é¦Ĩ": 6567,
      "éģ¥": 6568,
      "è§£åĨ³è¿Ļä¸ªéĹ®é¢ĺ": 6569,
      "è¿ŀç»Ń": 6570,
      "ç§ĭå¤©": 6571,
      "è¯Ģ": 6572,
      "çľĭçĿĢ": 6573,
      "åķ¦": 6574,
      "æ¶¨": 6575,
      "ç»ĨèıĮ": 6576,
      "æĴŀ": 6577,
      "ç¦ıåĪ©": 6578,
      "è¿Ļç¯ĩæĸĩç«łä¸Ń": 6579,
      "æĺ¥å¤©": 6580,
      "äººåľ¨": 6581,
      "ç»Ļäºº": 6582,
      "æĪĸæľįåĬ¡": 6583,
      "å¦Ĥä½ķåħĭæľį": 6584,
      "éħ·": 6585,
      "ç´łé£Ł": 6586,
      "æĽ´å¥½åľ°ç®¡çĲĨ": 6587,
      "åĵªäºĽæĸ¹éĿ¢": 6588,
      "è°¢è°¢æĤ¨": 6589,
      "ç¼ĸåĨĻä¸Ģç¯ĩ": 6590,
      "çļĦç¼º": 6591,
      "çļĦæ£Ģ": 6592,
      "Ġäººå·¥æĻºèĥ½": 6593,
      "æĸĩçĮ®": 6594,
      "åŃ¦éĻ¢": 6595,
      "ä½łæĺ¯åĲ¦": 6596,
      "ä¹ĭæĥħ": 6597,
      "åĵįåºĶ": 6598,
      "å¼ķçĶ¨": 6599,
      "ä¿ĿæĬ¤åľ°çĲĥ": 6600,
      "æł¼å¼ı": 6601,
      "éĩįè¦ģçļĦä½ľçĶ¨": 6602,
      "åĳĺå·¥çļĦ": 6603,
      "è£ħå¤ĩ": 6604,
      "ç©¿è¶Ĭ": 6605,
      "æĩĴ": 6606,
      "æĥĬåı¹": 6607,
      "éĢĢä¼ĳ": 6608,
      "çļĦæ³¨æĦıåĬĽ": 6609,
      "å½»åºķ": 6610,
      "ä¸ŃéĹ´": 6611,
      "åı¯ä»¥çĶ¨äºİ": 6612,
      "åħ³éĹŃ": 6613,
      "ä¸İæĪĳä»¬": 6614,
      "æĸ¹æ³ķæĺ¯": 6615,
      "çļĦæķ´": 6616,
      "æħ°": 6617,
      "ç¼ºå°ĳ": 6618,
      "æĦŁè°¢æĤ¨çļĦ": 6619,
      "è´ŁéĿ¢æĥħç»ª": 6620,
      "çĶµè§Ĩåī§": 6621,
      "èī¾ç±³ä¸½": 6622,
      "æ©Ħæ¦Ħ": 6623,
      "çļĦçĸ¾çĹħ": 6624,
      "æĢ»ç»ĵåħ¶æĳĺè¦ģåĨħå®¹": 6625,
      "äººæĢ§": 6626,
      "çľĭè¿ĩ": 6627,
      "æł·æľ¬": 6628,
      "ä¿ĿæĮģèģĶç³»": 6629,
      "ç¬¬åĽĽ": 6630,
      "éĶĻè¿ĩ": 6631,
      "ä»ĭç»įä¸Ģä¸ĭ": 6632,
      "èħ»": 6633,
      "ç¨ĭåº¦ä¸Ĭ": 6634,
      "åŃĻ": 6635,
      "ä»¥ä¸º": 6636,
      "æĸĩä»¶": 6637,
      "ä½łçļĦæĥ³æ³ķ": 6638,
      "åĳ½è¿Ĳ": 6639,
      "äºĨä¸Ģé¡¹": 6640,
      "è®¾è®¡åĴĮ": 6641,
      "çģ«çģ¾": 6642,
      "ç¬¬äºĮä¸ª": 6643,
      "å¥½å¥ĩå¿ĥ": 6644,
      "**": 6645,
      "ER": 6646,
      "xx": 6647,
      "åĴĮæ²ŁéĢļ": 6648,
      "çĶ¨é¤Ĳ": 6649,
      "ä¸Ĭè¿°": 6650,
      "æķ°æį®åĴĮ": 6651,
      "äºĨè§£åĪ°": 6652,
      "çľŁçĽ¸": 6653,
      "çĿ¡è§ī": 6654,
      "æ¶µçĽĸäºĨ": 6655,
      "æĺ¯å¯¹": 6656,
      "ä¸ºä½ķ": 6657,
      "å¦Ĥä½ķæľīæķĪåľ°": 6658,
      "æĪĳä»¬çļĦåĽ¢éĺŁ": 6659,
      "å¸ĤåľºçļĦ": 6660,
      "çĭ¬èĩª": 6661,
      "æľĪçĲĥ": 6662,
      "å°¼äºļ": 6663,
      "ç£ģ": 6664,
      "çļĦæĭħå¿§": 6665,
      "äºĨèĩªå·±": 6666,
      "çĶ¨åĵģ": 6667,
      "åı¯ä»¥è¿½æº¯åĪ°": 6668,
      "ä¼ļä¸Ĭ": 6669,
      "å¤ĸè§Ĥ": 6670,
      "æĪĳä»¬çļĦçĶŁæ´»æĸ¹å¼ı": 6671,
      "ä¼ĺç¼ºçĤ¹": 6672,
      "åİŁæĿ¥": 6673,
      "å²©": 6674,
      "æ¢ģ": 6675,
      "æīĢæľīäºº": 6676,
      "ä¿ĥè¿ĽäºĨ": 6677,
      "çļĦæµª": 6678,
      "æ»¡æĦıåº¦": 6679,
      "çļĦä¿ĿæĬ¤": 6680,
      "ä¸ºäººç±»": 6681,
      "ä¸ĬåįĪ": 6682,
      "éľĢè¦ģæľī": 6683,
      "è¯´çļĦ": 6684,
      "åĽŀåºĶ": 6685,
      "ä»£æĽ¿": 6686,
      "ä¸įæĸŃæıĲé«ĺ": 6687,
      "æľĢè¿ĳçļĦ": 6688,
      "æĳ¸": 6689,
      "è½¬ç§»": 6690,
      "ä¿ĥéĶĢ": 6691,
      "åĵĪåĵĪ": 6692,
      "çļĦæķĪçİĩ": 6693,
      "æī¹è¯Ħ": 6694,
      "çļĦæģĲ": 6695,
      "å§¿åĬ¿": 6696,
      "çŁ¿çī©è´¨": 6697,
      "çļĦåŃĺåľ¨": 6698,
      "æĪĳåĴĮ": 6699,
      "ä¸Ńå¤®": 6700,
      "æĪĳä»¬è¿ĺåı¯ä»¥": 6701,
      "æĽ´æĶ¹": 6702,
      "æľ¬æ¬¡": 6703,
      "èµł": 6704,
      "ä¹ĭè·¯": 6705,
      "å®ĥåľ¨": 6706,
      "åĢº": 6707,
      "è¯´æ³ķ": 6708,
      "èĲĿ": 6709,
      "æıĲä¾Ľå¸®åĬ©": 6710,
      "éķ¿åŁİ": 6711,
      "æ²¡ä»Ģä¹Ī": 6712,
      "æĪĺèĥľ": 6713,
      "è¯ĦåĪĨ": 6714,
      "æĨ": 6715,
      "Ġä»ĸ": 6716,
      "åı¯ä»¥å¢ŀå¼º": 6717,
      "æĹ¶çļĦ": 6718,
      "ä¸Ģä¸ªäººçļĦ": 6719,
      "å®īè£ħ": 6720,
      "äºĨè§£èĩªå·±çļĦ": 6721,
      "éĴĵ": 6722,
      "èĲ¥éĢł": 6723,
      "è°Īè®º": 6724,
      "24": 6725,
      "æĪĳä»¬æīĢ": 6726,
      "æıĲäº¤": 6727,
      "æľ¯è¯Ń": 6728,
      "åĽŀå½Ĵ": 6729,
      "è®©è¯»èĢħ": 6730,
      "èµĦäº§": 6731,
      "æĿİåħĪçĶŁ": 6732,
      "ç¢Ĺ": 6733,
      "åħ¶ä¸ŃæľĢ": 6734,
      "æľīåĬ©äºİæıĲé«ĺ": 6735,
      "çļĦèģĶç³»": 6736,
      "èģĮä¸ļè§ĦåĪĴ": 6737,
      "è¿ĺæľīä¸ĢäºĽ": 6738,
      "è¿ĺæľīå¾Īå¤ļ": 6739,
      "æĸ°éĹ»æĸĩç«ł": 6740,
      "å·¥ä½ľåĴĮçĶŁæ´»": 6741,
      "æµĵåİļ": 6742,
      "ä¼Łå¤§çļĦ": 6743,
      "çº½çº¦å¸Ĥ": 6744,
      "çļĦå¢ŀåĬł": 6745,
      "åı¯ä»¥å°Ŀè¯ķ": 6746,
      "åºĶå½ĵ": 6747,
      "éĿŀæ´²": 6748,
      "æł¹æį®æīĢ": 6749,
      "åģļèµ·": 6750,
      "å¯¼èĩ´çļĦ": 6751,
      "å°ĬéĩįåĴĮ": 6752,
      "ing": 6753,
      "éģŃéģĩ": 6754,
      "åıįæĺłäºĨ": 6755,
      "çļĦèµĦæºĲ": 6756,
      "åĴĮæĸ¹æ³ķ": 6757,
      "åĴĮåİĭåĬĽ": 6758,
      "æľīåĪ©äºİ": 6759,
      "è¿Ļæĺ¯ä¸Ģç§į": 6760,
      "åı¯ä»¥çľĭ": 6761,
      "å¾Ĺä»¥": 6762,
      "ä¿¡çĶ¨": 6763,
      "åħ¨åĬĽ": 6764,
      "å¸Ĥæ°ĳ": 6765,
      "é£Łè°±": 6766,
      "ä»İä»¥ä¸ĭ": 6767,
      "æĶ¹éĿ©": 6768,
      "æ»¥": 6769,
      "å¯¹äºİéĤ£äºĽ": 6770,
      "ç§¯æŀģçļĦå½±åĵį": 6771,
      "é¦ĸåħĪéľĢè¦ģ": 6772,
      "çĶŁåĳ½ä¸Ń": 6773,
      "èĭ¹æŀľåħ¬åı¸": 6774,
      "çļĦæİ¢ç´¢": 6775,
      "çļĦæŁĲ": 6776,
      "Ma": 6777,
      "op": 6778,
      "çļĦé¥®é£Ł": 6779,
      "çļĦæľĢä½³": 6780,
      "çĶŁçĲĨ": 6781,
      "å¥½ä¸»æĦı": 6782,
      "éĹ®åĢĻ": 6783,
      "è°ĭ": 6784,
      "åĲİçļĦæĸĩç«ł": 6785,
      "ä¸īå¹´": 6786,
      "å¿ħéľĢ": 6787,
      "è£Ĥ": 6788,
      "éĩĩçĶ¨äºĨ": 6789,
      "æĭĵå®½": 6790,
      "çļĦæ¤": 6791,
      "æĢĸ": 6792,
      "ä½ľçī©": 6793,
      "ä¹Łæĺ¯ä¸Ģç§į": 6794,
      "çī¹æĢ§": 6795,
      "ç¤¾äº¤æ´»åĬ¨": 6796,
      "åĲĥé¥Ń": 6797,
      "90": 6798,
      "ID": 6799,
      "çļĦå£°éŁ³": 6800,
      "ä¸įå®ī": 6801,
      "è´¾": 6802,
      "å·²æľī": 6803,
      "æķ´çĲĨ": 6804,
      "åħ±é¸£": 6805,
      "å¹²åĩĢ": 6806,
      "å¿ĥè¡Ģç®¡çĸ¾çĹħ": 6807,
      "iP": 6808,
      "ĠA": 6809,
      "å°ĺ": 6810,
      "å¯¹èĩªå·±çļĦ": 6811,
      "å¯¹åħ¨çĲĥ": 6812,
      "æ°´èµĦæºĲ": 6813,
      "åĽłä¸ºä»ĸ": 6814,
      "éħª": 6815,
      "æĮĩä»¤": 6816,
      "é¡¹çĽ®çļĦ": 6817,
      "ä½ıå®¿": 6818,
      "éĻĮçĶŁäºº": 6819,
      "åļ": 6820,
      "æĢ¨": 6821,
      "ä¿Ħ": 6822,
      "éĥ½åºĶè¯¥": 6823,
      "è¿ĻäºĽæĮĳæĪĺ": 6824,
      "ç¾İæĻ¯": 6825,
      "åģļåĩºäºĨ": 6826,
      "è¿ĳæĹ¥": 6827,
      "å¿«é¤Ĳ": 6828,
      "å¸ĤåľºéľĢæ±Ĥ": 6829,
      "è¾ĥä¸º": 6830,
      "æĴĴ": 6831,
      "ç±»ä¼¼äºİ": 6832,
      "çĺ¾": 6833,
      "45": 6834,
      "æľ´": 6835,
      "åĴĮæķĻèĤ²": 6836,
      "æĪĳåİ»": 6837,
      "ä¸ºäººä»¬": 6838,
      "åĩºçİ°åľ¨": 6839,
      "å¼Ģè½¦": 6840,
      "åĽłä¸ºä»ĸä»¬": 6841,
      "å®¢æĪ·æıĲä¾Ľ": 6842,
      "è®°èĢħ": 6843,
      "è¿Ļæł·åı¯ä»¥": 6844,
      "åĪĽéĢłæĢ§": 6845,
      "çļĦä¸Ģé¡¹": 6846,
      "è¿İæİ¥": 6847,
      "åĨľæĿĳ": 6848,
      "å©ļç¤¼": 6849,
      "æįŁå®³": 6850,
      "èĻļæĭŁçİ°å®ŀæĬĢæľ¯": 6851,
      "å¤·": 6852,
      "æ³Ĭ": 6853,
      "å°ıé¸Ł": 6854,
      "ä¸»æµģ": 6855,
      "åŃ¦ä¹łæĸ¹æ³ķ": 6856,
      "èµĦæľ¬": 6857,
      "è¿ĳæľŁ": 6858,
      "åħĭæĸ¯": 6859,
      "ç¢°": 6860,
      "èµ°äºĨ": 6861,
      "åĵģçīĮå½¢è±¡": 6862,
      "çĶŁçī©åŃ¦": 6863,
      "åĴĸåķ¡é¦Ĩ": 6864,
      "å¥ĭæĸĹ": 6865,
      "çļĦç¤¾äº¤åªĴä½ĵ": 6866,
      "å°±ä¸ļæľºä¼ļ": 6867,
      "çļĦæĹ¶ä»£": 6868,
      "åĴĮæµ·": 6869,
      "åľ¨ä¸Ģ": 6870,
      "åľ¨è¿Ļæ¬¡": 6871,
      "æľ¬åľ°": 6872,
      "åıĳåĩº": 6873,
      "éľĢè¦ģå¸®åĬ©": 6874,
      "æĸĩåĮĸä¸Ń": 6875,
      "æķ°æį®è¿Ľè¡Į": 6876,
      "è§Ĩè§Ĵ": 6877,
      "ç³»ç»ŁçļĦ": 6878,
      "éļıçĿĢäºĴèģĶç½ĳ": 6879,
      "æĦŁåĪ°å¾Ī": 6880,
      "èħ°": 6881,
      "å®ŀè·µä¸Ń": 6882,
      "ä½¿çĶ¨çļĦä¸Ńæĸĩæĸĩç«ł": 6883,
      "åľ¨è¿Ļç§įæĥħåĨµä¸ĭ": 6884,
      "ĠãĢĬ": 6885,
      "ä¸¢": 6886,
      "åĨĮ": 6887,
      "èĥ½ä¸įèĥ½": 6888,
      "æķĮ": 6889,
      "åŃ¦åĪ°": 6890,
      "æ³ī": 6891,
      "å¥½åıĭ": 6892,
      "å¤§ä¼Ĺ": 6893,
      "åīª": 6894,
      "æıĲä¾ĽæĽ´å¤ļ": 6895,
      "å¿«èĬĤå¥ı": 6896,
      "å£ģ": 6897,
      "èĩªçĦ¶çķĮ": 6898,
      "ãĢĭãĢģ": 6899,
      "çĶ»éĿ¢": 6900,
      "åĸĿæ°´": 6901,
      "å½¼å¾Ĺ": 6902,
      "è¹Ī": 6903,
      "é©±åĬ¨": 6904,
      "çļĦä»£è¡¨": 6905,
      "åı¯ä»¥èĢĥèĻĳ": 6906,
      "å±Ĭ": 6907,
      "èĢĮéĹ»åĲį": 6908,
      "èĩªå·±åľ¨": 6909,
      "çĮľ": 6910,
      "å®ĮæĪĲäºĨ": 6911,
      "å°ıè¯´ä¸Ń": 6912,
      "åłĨ": 6913,
      "éĨĩ": 6914,
      "åĲ¬èµ·æĿ¥å¾Īä¸įéĶĻ": 6915,
      "æŃ§è§Ĩ": 6916,
      "åľ¨è®¸å¤ļ": 6917,
      "ä»¥æ»¡è¶³": 6918,
      "å¾ĪæĦŁåħ´è¶£": 6919,
      "å®ŀåľ¨": 6920,
      "åĲĳä¸Ĭ": 6921,
      "æīįæĺ¯": 6922,
      "èİ·å¾ĹæĪĲåĬŁ": 6923,
      "çļĦæ¼Ķè®²": 6924,
      "ä¾¦æİ¢": 6925,
      "ot": 6926,
      "çļĦè´ŁéĿ¢å½±åĵį": 6927,
      "åĴĮæĽ´": 6928,
      "åŃĶ": 6929,
      "åĩ½": 6930,
      "åı¯ä»¥æĺ¯": 6931,
      "æ°´åĮĸåĲĪçī©": 6932,
      "æ²¡æľīä»»ä½ķ": 6933,
      "éĩĩè®¿": 6934,
      "å¥³åŃĲ": 6935,
      "æ¯ıä¸ªæ®µèĲ½": 6936,
      "ç§ĺè¯Ģ": 6937,
      "æī¿åıĹ": 6938,
      "è¿Ļæĺ¯ä¸Ģéĥ¨": 6939,
      "çļĦä»·æł¼": 6940,
      "çļĦå¤©æ°Ķ": 6941,
      "åĴĮäº¤æµģ": 6942,
      "æĪĳä»¬ä¹ŁéľĢè¦ģ": 6943,
      "åľ°çĲĨ": 6944,
      "çļĦçĤ": 6945,
      "çº¹": 6946,
      "èº«æĿĲ": 6947,
      "çľŁè¯ļ": 6948,
      "è¾ĥä½İ": 6949,
      "éĩĩåıĸäºĨ": 6950,
      "æĬĬæı¡": 6951,
      "çºªå¿µ": 6952,
      "åŃ¦ä¼ļäºĨ": 6953,
      "åįĪé¤Ĳ": 6954,
      "çļĦç¥ŀç»ı": 6955,
      "ä»¿ä½Ľ": 6956,
      "23": 6957,
      "PP": 6958,
      "ĊĠ": 6959,
      "æĪĳä»¬è¿ĺéľĢè¦ģ": 6960,
      "è¿ĩæĿ¥": 6961,
      "æĪĸæĺ¯": 6962,
      "åĿĽ": 6963,
      "ä¼łæĦŁ": 6964,
      "æİ¨éĶĢ": 6965,
      "åĩıå°ĳä½¿çĶ¨": 6966,
      "æļĳ": 6967,
      "ä¸Ģèµ·åİ»": 6968,
      "æī¾åĪ°ä¸Ģä¸ª": 6969,
      "çĨ¬": 6970,
      "å¨±ä¹Ĳæ´»åĬ¨": 6971,
      "åİ¨å¸Ī": 6972,
      "çļĦåĬ¨çī©": 6973,
      "åľ¨åħ¨çĲĥèĮĥåĽ´åĨħ": 6974,
      "æĻĭ": 6975,
      "é«ĺåħ´": 6976,
      "å¾Īæ£Ĵ": 6977,
      "é¦¨": 6978,
      "çĭ±": 6979,
      "ä½Ĩæĺ¯åľ¨": 6980,
      "ä¾¿å®ľ": 6981,
      "ä½İç¢³": 6982,
      "ä»·åĢ¼åĴĮ": 6983,
      "åįļå£«": 6984,
      "åĺ´": 6985,
      "å¯¹çİ¯å¢ĥçļĦå½±åĵį": 6986,
      "èĨľ": 6987,
      "é¬": 6988,
      "ä¸Ģæĸ¹éĿ¢": 6989,
      "èĩªå¾ĭ": 6990,
      "é«ĺèĢĥ": 6991,
      "éĥ½éĿŀå¸¸": 6992,
      "ç»ĻäºĨ": 6993,
      "ç»Ļäººä»¬": 6994,
      "çłį": 6995,
      "è±«": 6996,
      "ç§ĳåŃ¦çłĶç©¶": 6997,
      "åĲ«éĩı": 6998,
      "ä¸ºä»Ģä¹Īè¦ģ": 6999,
      "åı¤åħ¸": 7000,
      "åĳĬè¯īæĪĳä»¬": 7001,
      "æĴ°åĨĻä¸Ģç¯ĩ": 7002,
      "çļĦæ°ĶåĢĻ": 7003,
      "çļĦäººéĻħåħ³ç³»": 7004,
      "ä¸ĢæĹ¦": 7005,
      "è¡°": 7006,
      "å°ıåģ·": 7007,
      "è°ľ": 7008,
      "æ¸¸è§Ī": 7009,
      "ä¹ĲæĦı": 7010,
      "é¥®éħĴ": 7011,
      "æłĳæľ¨": 7012,
      "ç¹ģèį£": 7013,
      "æ¼«æŃ¥": 7014,
      "è®©äººæĦŁåĪ°": 7015,
      "èĪŀè¹Ī": 7016,
      "çļĦæİ¨ç§»": 7017,
      "æĹ©ä¸Ĭå¥½": 7018,
      "åŃ¦ä¹łæĸ°æĬĢèĥ½": 7019,
      "æĪĳæĿ¥": 7020,
      "ä¸įä¹ħ": 7021,
      "çĽĨ": 7022,
      "æĤ¨è®¤ä¸º": 7023,
      "åŃ¦ä¹łæķĪçİĩ": 7024,
      "ä»¥ä¸ĭæĸĩæľ¬": 7025,
      "åıĺå¾ĹæĽ´": 7026,
      "åĩĨç¡®çļĦ": 7027,
      "å¾®ç¬ĳ": 7028,
      "å¿«ä¹ĲåĴĮ": 7029,
      "åģľæŃ¢": 7030,
      "300": 7031,
      "åĲ¹": 7032,
      "æĺ¯è¦ģ": 7033,
      "ç§Ĵ": 7034,
      "æĿ¥æĶ¯æĮģ": 7035,
      "å°ıåĪļ": 7036,
      "ä¾ł": 7037,
      "ç®Ń": 7038,
      "ä¹ĭä½ľ": 7039,
      "åħ¬å¼Ģ": 7040,
      "å®ĥä¸įä»ħ": 7041,
      "ç¨Ģ": 7042,
      "èĤ¿": 7043,
      "éĢļè¿ĩè¿ĻäºĽ": 7044,
      "çļĦäººæīį": 7045,
      "å®ŀçİ°çĽ®æłĩ": 7046,
      "åĽ¢éĺŁçļĦ": 7047,
      "ç²¾ç¡®": 7048,
      "ä¸Ģæ¬¡æĢ§": 7049,
      "åĨ¬å¤©": 7050,
      "èī°éļ¾": 7051,
      "éļıçĿĢæĹ¶éĹ´çļĦæİ¨ç§»": 7052,
      "å®´": 7053,
      "åĴĮåİĨåı²": 7054,
      "æĪĳæĺ¯ä¸ĢåĲį": 7055,
      "åı¯ä»¥å¸¦æĿ¥": 7056,
      "åİĺ": 7057,
      "åľ°åĿĢ": 7058,
      "è¿ĺåºĶè¯¥": 7059,
      "å¤©ä½ĵ": 7060,
      "ä»İæĿ¥": 7061,
      "èĩªå·±çļĦçĽ®æłĩ": 7062,
      "å¨ĺ": 7063,
      "å¿ĥçĲĨåĮ»çĶŁ": 7064,
      "åĪĽéĢłä¸Ģä¸ª": 7065,
      "å°ıè¯´çļĦ": 7066,
      "çļĦæīį": 7067,
      "ç»ĵæŀĦåĴĮ": 7068,
      "å±ķçİ°åĩº": 7069,
      "Ġä½¿çĶ¨": 7070,
      "çļĦè¶ĭåĬ¿": 7071,
      "åĪĳ": 7072,
      "å¾Īåĸľæ¬¢": 7073,
      "æĦŁåĨĴ": 7074,
      "æŃ¤èĩ´": 7075,
      "åĪĽå§ĭ": 7076,
      "éĢīæĭ©ä¸Ģä¸ª": 7077,
      "çİ°ä»£ç§ĳæĬĢ": 7078,
      "åĨĻä½ľæĬĢå·§": 7079,
      "æī¿è¯º": 7080,
      "å®¡æŁ¥": 7081,
      "çļĦæŀģ": 7082,
      "çļĦç´§": 7083,
      "çļĦå®¶åºŃ": 7084,
      "çļĦè¡ĮåĬ¨": 7085,
      "ä»ĸæĺ¯": 7086,
      "çĶŁæ´»åĴĮå·¥ä½ľ": 7087,
      "åĽŀæĿ¥": 7088,
      "ç½²": 7089,
      "ç»ĵå©ļ": 7090,
      "è¯·æĤ¨": 7091,
      "çĥĤ": 7092,
      "åŃĺåľ¨ä¸ĢäºĽ": 7093,
      "st": 7094,
      "åĴĮéľĢæ±Ĥ": 7095,
      "æĪĳçĲĨè§£": 7096,
      "åĵº": 7097,
      "å¹¶å°Ŀè¯ķ": 7098,
      "åıĳå°Ħ": 7099,
      "èµ«": 7100,
      "ä½ĨåĲĮæĹ¶ä¹Ł": 7101,
      "ä½¿åĳ½": 7102,
      "è¯Ńæĸĩ": 7103,
      "åĻ¨åĴĮ": 7104,
      "éŁ³ä¹Ĳå®¶": 7105,
      "ä¸ĢçĽ´ä»¥æĿ¥": 7106,
      "è¸ı": 7107,
      "åĢŁåĬ©": 7108,
      "åºŁçī©": 7109,
      "çļĦæ¯ĶèµĽ": 7110,
      "å¿½çķ¥äºĨ": 7111,
      "ıè§Ī": 7112,
      "ä¸ŃæıĲåıĸ": 7113,
      "å¯¹åģ¥åº·": 7114,
      "æĪĳä»¬æľī": 7115,
      "åĬłæ·±": 7116,
      "æĥħå¢ĥ": 7117,
      "äººä»¬è¶ĬæĿ¥è¶Ĭ": 7118,
      "å¯¼èĪª": 7119,
      "æĹ¥ç¨ĭ": 7120,
      "ä¸īç§į": 7121,
      "éĢīæĭ©éĢĤåĲĪèĩªå·±çļĦ": 7122,
      "å¼łèĢģå¸Ī": 7123,
      "ç§¯æŀģåľ°": 7124,
      "çİ©åħ·": 7125,
      "åĴĸåķ¡åĽł": 7126,
      "é¸Łç±»": 7127,
      "çļĦæīĭæľº": 7128,
      "è©¹å§Ĩæĸ¯": 7129,
      "çļĦå±±": 7130,
      "äºĨä¸įèµ·": 7131,
      "ä¸ºèĩªå·±": 7132,
      "å¯¹èº«ä½ĵ": 7133,
      "ä½¿äººä»¬": 7134,
      "åķ¥": 7135,
      "åĮħè£ħ": 7136,
      "ä¿¡æģ¯çļĦ": 7137,
      "äººä»¬éľĢè¦ģ": 7138,
      "ä½łçļĦåħ¬åı¸": 7139,
      "æīįåįİ": 7140,
      "é¼»": 7141,
      "æĻļé¤Ĳ": 7142,
      "å°¤ä¸º": 7143,
      "åĢ¾åĲĳäºİ": 7144,
      "åĴĮçĦ¦èĻĳ": 7145,
      "åľĭ": 7146,
      "ä¸Ģåı¥è¯Ŀ": 7147,
      "èĩªå°Ĭ": 7148,
      "è¯Ńæ°Ķ": 7149,
      "ä¿ĿæĮģåĨ·éĿĻ": 7150,
      "èĬĤèĥ½": 7151,
      "è¿Ĳä½ľ": 7152,
      "è°ĥåĳ³": 7153,
      "æĶ¶èİ·": 7154,
      "åķĨä¸ļæ¨¡å¼ı": 7155,
      "å±ĤéĿ¢": 7156,
      "ç»Ļå®ļä¸Ģä¸ª": 7157,
      "æĢ»ç»ĵåħ¶ä¸»è¦ģåĨħå®¹": 7158,
      "ä¸įå¾Ĺä¸į": 7159,
      "pp": 7160,
      "çļĦéĶĢåĶ®": 7161,
      "æĺ¯ç¾İåĽ½": 7162,
      "æĮ¯": 7163,
      "å¤§åį«": 7164,
      "åĿ¡": 7165,
      "æºĥ": 7166,
      "çĶŁæĪĲä¸Ģç¯ĩæĸĩç«ł": 7167,
      "åı¯ä»¥å¸®åĬ©æĤ¨": 7168,
      "å°Ŀè¯ķæĸ°": 7169,
      "é¡¹çĽ®ä¸Ń": 7170,
      "é©¬ä¸Ĭ": 7171,
      "æĪ¿å±ĭ": 7172,
      "èĥ¡æ¤Ĵ": 7173,
      "çļĦä¹¦": 7174,
      "æĺ¯æĢİä¹Ī": 7175,
      "äººåĬĽ": 7176,
      "å¯¸": 7177,
      "ä¼ª": 7178,
      "æĿ¥ä¿ĿæĬ¤": 7179,
      "çļĦçķ": 7180,
      "æĢ§è´¨": 7181,
      "èĤ¢": 7182,
      "åĢĭ": 7183,
      "å¼Ģæĭĵ": 7184,
      "åİ»åģļ": 7185,
      "åŁºéĩĳ": 7186,
      "é¦ĸæ¬¡": 7187,
      "åħ¶ä¸Ńä¸Ģä¸ª": 7188,
      "æĢ»ç»ĵä¸»è¦ģåĨħå®¹": 7189,
      "æ³¢åĬ¨": 7190,
      "çļĦæķĻåŃ¦": 7191,
      "èį¯çī©æ²»çĸĹ": 7192,
      "è§ģåĪ°ä½ł": 7193,
      "çļĦåı¯èĥ½æĢ§": 7194,
      "æľĥ": 7195,
      "åľ¨åĵªéĩĮ": 7196,
      "ä¸Ńæľī": 7197,
      "åı¯ä»¥éĻįä½İ": 7198,
      "åĪĨæķ°": 7199,
      "æıĲé«ĺæķĪçİĩ": 7200,
      "ä¸Ģä½įç»ıéªĮä¸°å¯ĮçļĦ": 7201,
      "æĲ¬": 7202,
      "æİĮæİ§": 7203,
      "åĬłå¼ºå¯¹": 7204,
      "éĽ¶é£Ł": 7205,
      "ic": 7206,
      "çļĦåĳ¢": 7207,
      "éĢĽ": 7208,
      "å¼¯": 7209,
      "å¤§éĻĨ": 7210,
      "æľĢå¤ļ": 7211,
      "çº²": 7212,
      "éĤª": 7213,
      "éĺŁä¼į": 7214,
      "åħ¨çĲĥæ°Ķæ¸©": 7215,
      "è¿Ļç§įæĸ¹æ³ķ": 7216,
      "éĺħè¯»ä¹łæĥ¯": 7217,
      "æ¿Ģæĥħ": 7218,
      "éŃĤ": 7219,
      "éļĲç§ģä¿ĿæĬ¤": 7220,
      "çļĦç¨³": 7221,
      "èķ´": 7222,
      "çļĦå¹³è¡¡": 7223,
      "ä»Ļ": 7224,
      "è¿Ļå¯¹äºİ": 7225,
      "å·¥åİĤ": 7226,
      "è§£çŃĶ": 7227,
      "æİ¨æĸŃ": 7228,
      "çĮĽ": 7229,
      "åħīçº¿": 7230,
      "çĶŁæĢģå¹³è¡¡": 7231,
      "é¦Ļæ¸¯": 7232,
      "ç¬¬äºĮæ®µ": 7233,
      "Java": 7234,
      "çºłæŃ£": 7235,
      "ç¡¬ä»¶": 7236,
      "æĭ¼åĨĻéĶĻè¯¯": 7237,
      "æķ°çĻ¾ä¸ĩ": 7238,
      "çļĦæ»¡": 7239,
      "è´·æ¬¾": 7240,
      "Ġå¯¹": 7241,
      "åĴĮæĹł": 7242,
      "çĶŁæ´»åľ¨": 7243,
      "åºĶè¯¥å¦Ĥä½ķ": 7244,
      "çĭĹçļĦ": 7245,
      "çĶŁäº§åĴĮ": 7246,
      "äº¤éĢļæĭ¥åłµ": 7247,
      "åŁºç¡Ģè®¾æĸ½": 7248,
      "ãĢĭãĢģãĢĬ": 7249,
      "¯æķĳ": 7250,
      "çļĦèīºæľ¯": 7251,
      "ä¸įå¤ļ": 7252,
      "å¥ĳ": 7253,
      "ä»ĸè¿ĺ": 7254,
      "æĽ´å¤§": 7255,
      "æĻ¶": 7256,
      "ä¸İæľĭåıĭ": 7257,
      "è¯´è¯´": 7258,
      "æĸ¹å¼ıæĿ¥": 7259,
      "è§ĴèĲ½": 7260,
      "æ»ļ": 7261,
      "ç²¾éĢļ": 7262,
      "çº¿ç´¢": 7263,
      "æİ¢ç´¢åĴĮ": 7264,
      "éļĲèĹı": 7265,
      "æĿĥçĽĬ": 7266,
      "è¿·èĮ«": 7267,
      "åľ°åĮºçļĦ": 7268,
      "ane": 7269,
      "çļĦæĹħæ¸¸": 7270,
      "åĴĮå°ı": 7271,
      "è¿ĻéľĢè¦ģ": 7272,
      "åºŀ": 7273,
      "åŃ¦åİĨ": 7274,
      "æĪĲä¸Ģä¸ª": 7275,
      "æĽ´åĸľæ¬¢": 7276,
      "èĻ¾": 7277,
      "ä¸¤ä¸ªäºº": 7278,
      "è®Ńç»ĥåĴĮ": 7279,
      "ç¤¾äº¤åªĴä½ĵåĴĮ": 7280,
      "æł¹æį®ä»¥ä¸ĭè¿Ļç¯ĩæĸĩç«ł": 7281,
      "æł¹æį®ä»¥ä¸ĭè¾ĵåħ¥": 7282,
      "one": 7283,
      "çļĦçĽ®æłĩåĴĮ": 7284,
      "çļĦæ±¡æŁĵ": 7285,
      "èķī": 7286,
      "å¼ķäººåħ¥": 7287,
      "åĵºä¹³": 7288,
      "åĴĮç»´æĬ¤": 7289,
      "åı¯ä¿¡": 7290,
      "åĪĨå¿ĥ": 7291,
      "å¾Īä¹ħ": 7292,
      "æŃ¤æ¬¡": 7293,
      "ä»Ģä¹Īæł·": 7294,
      "åĨĻåĩº": 7295,
      "å¥¹ä»¬": 7296,
      "å¿«æį·": 7297,
      "å¨ģå¤·": 7298,
      "å®ĿèĹı": 7299,
      "æıĲåįĩèĩªå·±çļĦ": 7300,
      "ä»¥ä¾¿æĽ´å¥½åľ°": 7301,
      "å¤ıå¨ģå¤·": 7302,
      "æİ¨åĬ¨äºĨ": 7303,
      "çļĦæĮĳæĪĺåĴĮ": 7304,
      "æģĲæĢĸ": 7305,
      "çļĦæĹħè¡Į": 7306,
      "æĭ¯æķĳ": 7307,
      "æµıè§Ī": 7308,
      "éĥ½æľīçĿĢ": 7309,
      "æĺ¯ä¸ĢéĹ¨": 7310,
      "åĪĨæŀĲäºĨ": 7311,
      "è¡Įä¸ºåĴĮ": 7312,
      "é¢Ĩå¯¼åĬĽ": 7313,
      "ä¸įçŁ¥éģĵè¯¥": 7314,
      "é£ŀéĢŁ": 7315,
      "é¦Ļèķī": 7316,
      "è§£åĨ³éĹ®é¢ĺçļĦèĥ½åĬĽ": 7317,
      "çļĦçľŁå®ŀ": 7318,
      "çļĦç³ĸ": 7319,
      "è½¬æį¢ä¸º": 7320,
      "åĲĦç§įåĲĦæł·": 7321,
      "æ©Ħæ¦Ħæ²¹": 7322,
      "å¼ķäººåħ¥èĥľ": 7323,
      "li": 7324,
      "ĵé£İ": 7325,
      "çļĦè®¤è¯Ĩ": 7326,
      "ä¸Ģä¸ªéĹ®é¢ĺ": 7327,
      "æĺİæĺŁ": 7328,
      "å¯¹è¯ĿæĢ»ç»ĵä¸»è¦ģåĨħå®¹": 7329,
      "èĢģçİĭ": 7330,
      "åĲ¬ä¼Ĺ": 7331,
      "çĽ®æłĩåıĹä¼Ĺ": 7332,
      "åĽ¢éĺŁåįıä½ľ": 7333,
      "çļĦåıĳå±ķåĴĮ": 7334,
      "èį¯åĵģ": 7335,
      "ä¿®æŃ£": 7336,
      "åįĹäº¬": 7337,
      "çļĦä¸»è¦ģåİŁåĽł": 7338,
      "å¸¦æĿ¥äºĨè®¸å¤ļ": 7339,
      "é±¼ç±»": 7340,
      "ç¢³æ°´åĮĸåĲĪçī©": 7341,
      "çļĦæĢģåº¦åĴĮ": 7342,
      "çļĦçº¿": 7343,
      "æł¹æį®ä»¥ä¸Ĭè¿Ļæ®µå¯¹è¯ĿæĢ»ç»ĵä¸»è¦ģåĨħå®¹": 7344,
      "æ¨¡æĭŁäººç±»": 7345,
      "æŀģå¤§åľ°": 7346,
      "çļĦæ¡Ī": 7347,
      "èĶ¬èıľåĴĮæ°´æŀľ": 7348,
      "ä»ģ": 7349,
      "æŀĿ": 7350,
      "åĬĽåº¦": 7351,
      "è¡Įç¨ĭ": 7352,
      "ä¹Łå°±æĺ¯": 7353,
      "é£ĵé£İ": 7354,
      "ä¸İäººç±»": 7355,
      "è¯Ńä¹ī": 7356,
      "å·²ç»ıè¢«": 7357,
      "èº«ä½ĵç´łè´¨": 7358,
      "æĺ¯ä¸Ģä¸ªéĿŀå¸¸": 7359,
      "æĶ¿æ²»": 7360,
      "çŁŃæľŁ": 7361,
      "èĩªæĪĳç®¡çĲĨ": 7362,
      "çľ¼éķľ": 7363,
      "éĿŀå¸¸æĦŁè°¢æĤ¨": 7364,
      "æĬ«èĲ¨": 7365,
      "çļĦæ£ĢæŁ¥": 7366,
      "ĠåĹ¯": 7367,
      "æĪĳæĽ¾ç»ı": 7368,
      "åľ¨ä½¿çĶ¨": 7369,
      "åľ¨æĪĳçļĦ": 7370,
      "å¯¹æĬĹ": 7371,
      "éĹ®éĹ®": 7372,
      "åĳµ": 7373,
      "éĿ¢æĿ¡": 7374,
      "äººä»¬åºĶè¯¥": 7375,
      "çĸĹæ³ķ": 7376,
      "å¼ķé¢Ĩ": 7377,
      "ç¤¾ä¼ļä¸Ń": 7378,
      "åĩłç§į": 7379,
      "å¦Ĥæŀľä½łæĥ³": 7380,
      "åħħåĪĨçļĦ": 7381,
      "è®°å¿ĨåĬĽ": 7382,
      "åĭ¤å¥ĭ": 7383,
      "è¢«å¹¿æ³ĽåºĶçĶ¨äºİ": 7384,
      "æ²īè¿·äºİ": 7385,
      "çļĦæĬ¥åĳĬ": 7386,
      "åıī": 7387,
      "åĴĮåĩıå°ĳ": 7388,
      "åľ¨èģĮåľºä¸Ń": 7389,
      "å·¾": 7390,
      "å¹¼": 7391,
      "åĳĨ": 7392,
      "çľĭä¹¦": 7393,
      "æ¯Ķäºļ": 7394,
      "éĩĮç¨ĭ": 7395,
      "æŀģåħ¶": 7396,
      "çĹħæĥħ": 7397,
      "æĶ¯æĴĳ": 7398,
      "åıįå¤į": 7399,
      "ç¤¾äº¤ç½ĳç»ľ": 7400,
      "2020": 7401,
      "2022": 7402,
      "æľºä¼ļåĴĮ": 7403,
      "èĲ¥åħ»ç´ł": 7404,
      "çļĦæķĪçİĩåĴĮ": 7405,
      "å®¡è§Ĩ": 7406,
      "1000": 7407,
      "çĽĳçĿ£åŃ¦ä¹ł": 7408,
      "æĹłäººæľº": 7409,
      "GPTæ¨¡åŀĭ": 7410,
      "çĬ¹è±«": 7411,
      "çļĦç»ĨèĬĤ": 7412,
      "æĺ¯è°ģ": 7413,
      "ä¸ŃåĮ»": 7414,
      "ä¸ĭä¸Ģä¸ª": 7415,
      "éľĢè¦ģæĽ´å¤ļ": 7416,
      "éľĢè¦ģæĽ´å¤ļçļĦ": 7417,
      "è®¤åĲĮ": 7418,
      "çº¢æ¥¼": 7419,
      "æĶ¾æĿ¾åĴĮ": 7420,
      "æĸĩåĮĸéģĹäº§": 7421,
      "ä¹¦ä¸Ń": 7422,
      "æ¸ħçĲĨ": 7423,
      "ä¸°å¯Įå¤ļå½©": 7424,
      "åĿļæŀľ": 7425,
      "è¡Ģæ¶²": 7426,
      "å®ŀéĻħåºĶçĶ¨": 7427,
      "çĪĨåıĳ": 7428,
      "ä¹ĺåĿĲ": 7429,
      "é«ĺä¸ŃçĶŁ": 7430,
      "çļĦæ¨¡åŀĭ": 7431,
      "In": 7432,
      "ĠåĴĮ": 7433,
      "çļĦçĶŁåĳ½": 7434,
      "çļĦä½ľåĵģ": 7435,
      "ãĢĮ": 7436,
      "ä¸ŃæĢ§": 7437,
      "åŃ¦åĪ°äºĨ": 7438,
      "åĵŃ": 7439,
      "å¤§å¹ħ": 7440,
      "åĬ¨çĶ»": 7441,
      "åĬłå¤§": 7442,
      "çĤ¹åĴĮ": 7443,
      "è¿ĻäºĽåĽłç´ł": 7444,
      "åĮħå®¹": 7445,
      "æ·±åıĹ": 7446,
      "éĴ»": 7447,
      "æµ·å²¸": 7448,
      "èŃ¦å®ĺ": 7449,
      "ç³ĸåĪĨ": 7450,
      "ç»Ļå®ļçļĦæĸĩæľ¬": 7451,
      "å´©": 7452,
      "çļĦç©ºæ°Ķ": 7453,
      "æģĭçĪ±": 7454,
      "éĴĵé±¼": 7455,
      "ä¸¹": 7456,
      "çļĦåĽŀçŃĶ": 7457,
      "æĺ¯æĢİæł·": 7458,
      "ä»¥åħį": 7459,
      "å¥Ķ": 7460,
      "çļĦæĽ": 7461,
      "æĮ¤": 7462,
      "è¿Ļæ®µæĸĩåŃĹ": 7463,
      "ç²Ĺ": 7464,
      "å¿ħå¤ĩ": 7465,
      "é¤Ĳé¥®": 7466,
      "æ¸©é¦¨": 7467,
      "æķ°åŃĹæĹ¶ä»£": 7468,
      "æĹ©èµ·": 7469,
      "çĶ»å®¶": 7470,
      "çħ§çīĩ": 7471,
      "èħĬ": 7472,
      "åĩĨç¡®æĢ§åĴĮ": 7473,
      "åĬ³åĬ¨": 7474,
      "ç²īä¸Ŀ": 7475,
      "åħ»æĪĲèī¯å¥½çļĦ": 7476,
      "çļĦçľŁæŃ£": 7477,
      "çļĦæ¤į": 7478,
      "Ġ(": 7479,
      "çļĦå¿ħè¦ģ": 7480,
      "åĴĮæĮĩå¯¼": 7481,
      "ä»¥ä¿ĿæĮģ": 7482,
      "å¼Ħ": 7483,
      "å¯¹æľªæĿ¥": 7484,
      "æĪĳä»¬å¸ĮæľĽ": 7485,
      "å¹¶ç»Ļåĩº": 7486,
      "å¸Ĥåľºä»½é¢Ŀ": 7487,
      "æ²»æĦĪ": 7488,
      "éģ¿åħįè¿ĩåº¦": 7489,
      "çĻ½èī²": 7490,
      "èĤīç±»": 7491,
      "éĢļå¸¸æĺ¯": 7492,
      "åĨĽäºĭ": 7493,
      "ãĢĤãĢĤãĢĤ": 7494,
      "ä¸įèī¯å½±åĵį": 7495,
      "lo": 7496,
      "çļĦé¡¹çĽ®": 7497,
      "çļĦå½¢å¼ı": 7498,
      "çļĦä½įç½®": 7499,
      "ãĢį": 7500,
      "éĹ·": 7501,
      "ç§įæĹı": 7502,
      "ç»ĻåĩºäºĨ": 7503,
      "è¯¥çłĶç©¶": 7504,
      "æ±ĤèģĮ": 7505,
      "åģ¥åº·çĬ¶åĨµ": 7506,
      "å¦Ĥä½ķä¿ĿæĮģ": 7507,
      "éĤ£å°±": 7508,
      "è¯·ä½ł": 7509,
      "å®¢æ°Ķ": 7510,
      "èĦĨ": 7511,
      "æķ°åŃĹèĲ¥éĶĢ": 7512,
      "åıĤä¸İèĢħ": 7513,
      "çļĦæĥ³è±¡": 7514,
      "æłĳç«ĭ": 7515,
      "è¯ļå®ŀ": 7516,
      "æĬ½è±¡": 7517,
      "åºŁå¼ĥçī©": 7518,
      "æª": 7519,
      "çļĦç»ıéªĮ": 7520,
      "çļĦä¹łæĥ¯": 7521,
      "çļĦè§Ĵåº¦": 7522,
      "åĴĮå½±åĵį": 7523,
      "ä¸įçŁ¥": 7524,
      "ç§įç§į": 7525,
      "å·¥ä½ľç»ıéªĮ": 7526,
      "éĩĮæĸ¯": 7527,
      "æķĪåºĶ": 7528,
      "çĹħä¾ĭ": 7529,
      "å¸Ĥåľºè¶ĭåĬ¿": 7530,
      "æ¨¡ä»¿": 7531,
      "è½¬åıĺ": 7532,
      "çļĦç®ĢåİĨ": 7533,
      "å¿łè¯ļåº¦": 7534,
      "æĪĳå»ºè®®ä½ł": 7535,
      "é½¿": 7536,
      "åŃ¦ä½į": 7537,
      "æĪĳä»¬çİ°åľ¨": 7538,
      "æłĸæģ¯åľ°": 7539,
      "æĮļ": 7540,
      "éľĢè¦ģä¸įæĸŃ": 7541,
      "èĢĮåĩº": 7542,
      "ä¸»è§Ĥ": 7543,
      "åħ¬åħĥ": 7544,
      "èĢģå¹´äºº": 7545,
      "æīįèĥ½å¤Ł": 7546,
      "çİ°ä»£äºº": 7547,
      "åĳĬè¯īä½ł": 7548,
      "çĵ¦": 7549,
      "æĦŁåıĹåĪ°äºĨ": 7550,
      "çļĦæ°´æŀľ": 7551,
      "çļĦèĩªçĦ¶": 7552,
      "äºĨè¿Ļä¸ª": 7553,
      "ä¹Łå¼Ģå§ĭ": 7554,
      "æıĲä¾ĽæĽ´å¤ļçļĦ": 7555,
      "ç¾İå¦Ļ": 7556,
      "æ¶ĪåĮĸ": 7557,
      "åŃĺåľ¨çĿĢ": 7558,
      "è¿½è¸ª": 7559,
      "èµ°è¿Ľ": 7560,
      "å³»": 7561,
      "æĪĲå°±æĦŁ": 7562,
      "çŀ¬éĹ´": 7563,
      "æĸ°åĨłçĹħæ¯Ĵ": 7564,
      "çļĦçĶŁåŃĺ": 7565,
      "åĬ¨æ¤įçī©": 7566,
      "æĥ³çŁ¥éģĵ": 7567,
      "è®©æĤ¨": 7568,
      "ç¬¬ä¸Ģæ®µ": 7569,
      "è°¢è°¢ä½łçļĦ": 7570,
      "åľ¨è¿Ļä¸ªè¿ĩç¨ĭä¸Ń": 7571,
      "è´µåħ¬åı¸": 7572,
      "æıĲåĪ°çļĦ": 7573,
      "éĽĨä¸Ńæ³¨æĦıåĬĽ": 7574,
      "çļĦæµ·æ»©": 7575,
      "è¾£æ¤Ĵ": 7576,
      "Da": 7577,
      "Ġé¦ĸåħĪ": 7578,
      "åľ¨ç¾İåĽ½": 7579,
      "å¸½": 7580,
      "åįľ": 7581,
      "ä¹ŁéĿŀå¸¸éĩįè¦ģ": 7582,
      "å±¿": 7583,
      "å¾ĹåĪĨ": 7584,
      "æĥ³è¿ĩ": 7585,
      "æīĢæľª": 7586,
      "ä¼łè¯´": 7587,
      "å·²ç»ıæľī": 7588,
      "è¯Ńè¨ĢåĴĮ": 7589,
      "æĬĬå®ĥ": 7590,
      "æ°ĶåĢĻåıĺåĮĸçļĦå½±åĵį": 7591,
      "éĿĴå¹´": 7592,
      "æķ°åŃĹåĮĸæĹ¶ä»£": 7593,
      "ä½¿åħ¶æĽ´åĬł": 7594,
      "è¿ħéĢŁåıĳå±ķ": 7595,
      "åİŁå§ĭæĸĩæľ¬": 7596,
      "éĶħä¸Ń": 7597,
      "è½¨éģĵ": 7598,
      "æī¹åĪ¤æĢ§": 7599,
      "åĵºä¹³åĬ¨çī©": 7600,
      "ri": 7601,
      "ro": 7602,
      "çļĦéĢŁåº¦": 7603,
      "åľ¨ä¸įåĲĮ": 7604,
      "åľ¨åħ¨çĲĥ": 7605,
      "å¯¹æ¯Ķ": 7606,
      "ä¸ĭæ¬¡": 7607,
      "è¿ĺå°Ĩ": 7608,
      "å®ĥèĥ½å¤Ł": 7609,
      "èĤĸ": 7610,
      "æ·±å¤Ħ": 7611,
      "éĽ¾": 7612,
      "ä¸įæĸŃåıĺåĮĸ": 7613,
      "å¸ĤåľºåĴĮ": 7614,
      "éļıåľ°": 7615,
      "åĽ¢ç»ĵ": 7616,
      "ĊĊĊ": 7617,
      "èħº": 7618,
      "æĥĬåĸľ": 7619,
      "æķıéĶĲ": 7620,
      "æĿĳåºĦ": 7621,
      "ERT": 7622,
      "çļĦç¨³å®ļ": 7623,
      "Jane": 7624,
      "SA": 7625,
      "çļĦæĲ": 7626,
      "æľĢéĢĤåĲĪ": 7627,
      "å§ľ": 7628,
      "è¾¾åĪ°äºĨ": 7629,
      "æľªæĿ¥åıĳå±ķ": 7630,
      "ç¤¼è²Į": 7631,
      "çļĦç¾İæĻ¯": 7632,
      "çļĦæĦŁæĥħ": 7633,
      "æ·±åĪ»åľ°": 7634,
      "èĪªå¤©": 7635,
      "èĪªç©º": 7636,
      "æ³°åĿ¦": 7637,
      "èı²å°Ķ": 7638,
      "åħ¬åħ±äº¤éĢļå·¥åħ·": 7639,
      "äºĨä¸įèµ·çļĦ": 7640,
      "åħ¹": 7641,
      "æĪĳåĽ½": 7642,
      "æľīä¸ª": 7643,
      "è¿Ļåıª": 7644,
      "åľ°äº§": 7645,
      "é£İåħī": 7646,
      "åĲ¬åĬĽ": 7647,
      "å½¢å®¹": 7648,
      "æĪĳæĥ³çŁ¥éģĵ": 7649,
      "çĳļ": 7650,
      "æĭ¿çĿĢ": 7651,
      "çļĦä¸Ģä¸ªéĩįè¦ģ": 7652,
      "æĲľç´¢å¼ķæĵİ": 7653,
      "æħ¢æĢ§çĸ¾çĹħ": 7654,
      "çļĦåĲĪä½ľ": 7655,
      "åı¬": 7656,
      "åĴĮå°Ĭéĩį": 7657,
      "åľ¨èĩªçĦ¶è¯Ńè¨Ģå¤ĦçĲĨ": 7658,
      "å¯Ħ": 7659,
      "æĽ´æį¢": 7660,
      "éľľ": 7661,
      "åĩºéĹ¨": 7662,
      "åĮĸå¦Ĩ": 7663,
      "æł¹æį®æıĲä¾ĽçļĦ": 7664,
      "æĹ¥è®°": 7665,
      "æĶ¹ä¸º": 7666,
      "ç«ĭåľº": 7667,
      "æĽ´å¤ļäºº": 7668,
      "å¸Ĥåľºè°ĥçłĶ": 7669,
      "åĮ»çĸĹæľįåĬ¡": 7670,
      "é£İæł¼åĴĮ": 7671,
      "åĲ¬è¯´ä½ł": 7672,
      "åħ¬åĽŃéĩĮ": 7673,
      "èº«ä½ĵåĴĮå¿ĥçĲĨ": 7674,
      "çļĦæĻ¯èī²": 7675,
      "Ġä½Ĩæĺ¯": 7676,
      "äººèĦ¸": 7677,
      "åľ¨è¿ĻäºĽ": 7678,
      "æĦ¤": 7679,
      "è¡Įé©¶": 7680,
      "ä¸Ģä¸ªå¹´è½»çļĦ": 7681,
      "çĶµåĬĽ": 7682,
      "ä¸½èİİ": 7683,
      "å¹¿æ³ĽåºĶçĶ¨äºİ": 7684,
      "çĶŁåĳ½çļĦ": 7685,
      "åŃ£åº¦": 7686,
      "åĲĦä¸ªæĸ¹éĿ¢": 7687,
      "å°¼åħĭåı·": 7688,
      "åĬ«": 7689,
      "ä¹ŁæľīåĬ©äºİ": 7690,
      "çİ°éĩĳ": 7691,
      "å¾Ĺå¾Ī": 7692,
      "å¦Ĥä½ķçľĭå¾ħ": 7693,
      "æł¹æį®èĩªå·±çļĦ": 7694,
      "å¸¦é¢Ĩ": 7695,
      "æĹ©æĻ¨": 7696,
      "ç»¿èī²èĥ½æºĲ": 7697,
      "äº§çĶŁäºĨæ·±è¿ľçļĦå½±åĵį": 7698,
      "çļĦç´ł": 7699,
      "æ·ĺå®Ŀ": 7700,
      "åıł": 7701,
      "ä¿±ä¹Ĳ": 7702,
      "ä½ĵæ£Ģ": 7703,
      "å¸¸è§Ħ": 7704,
      "åĲįè¯į": 7705,
      "äººä»¬å¼Ģå§ĭ": 7706,
      "åĪĽç«ĭ": 7707,
      "äºĨè§£æĽ´å¤ļ": 7708,
      "æĹħéĢĶä¸Ń": 7709,
      "å£³": 7710,
      "è¡¨çİ°åĩºäºĨ": 7711,
      "æĥĬäººçļĦ": 7712,
      "ä¸ªæĢ§åĮĸçļĦ": 7713,
      "æ³°åĿ¦å°¼åħĭåı·": 7714,
      "ä¿±ä¹Ĳéĥ¨": 7715,
      "ĠæľĢåĲİ": 7716,
      "çļĦåĲĦç§į": 7717,
      "åĴĮå¿ĥçĲĨ": 7718,
      "åĴĮä»ĸçļĦ": 7719,
      "ä»¥éĢĤåºĶ": 7720,
      "åİ¿": 7721,
      "çĲĨè´¢": 7722,
      "çļĦç¦": 7723,
      "åħ³èģĶ": 7724,
      "è¾¨": 7725,
      "æĦŁåĬ¨": 7726,
      "èĤĥ": 7727,
      "æķ°æį®ä¸Ń": 7728,
      "åŁİåł¡": 7729,
      "éĢŁåº¦åĴĮ": 7730,
      "çģ«è½¦": 7731,
      "ä»·åĢ¼è§ĤåĴĮ": 7732,
      "ä¸įå¤ªå¥½": 7733,
      "åĭĩæ°ĶåĴĮ": 7734,
      "åĩ¯çī¹": 7735,
      "ä¸Ńå¹´çĶ·æĢ§": 7736,
      "è´«åĽ°": 7737,
      "åľ¨çİ°ä»£ç¤¾ä¼ļä¸Ń": 7738,
      "åĴĮå®ŀè·µ": 7739,
      "ä¸Ģéģĵ": 7740,
      "èĢĢ": 7741,
      "éĿ¢åīį": 7742,
      "å¹´åº¦": 7743,
      "åĲĪæ³ķ": 7744,
      "èµ·åºĬ": 7745,
      "å¦Ĥä½ķå¤ĦçĲĨ": 7746,
      "æŀģå¤§çļĦ": 7747,
      "è§£åĨ³æĸ¹æ³ķ": 7748,
      "æĺĵæĩĤ": 7749,
      "æħ¨": 7750,
      "èĢĥèĻĳè¿ĩ": 7751,
      "è¿Ļæł·åģļ": 7752,
      "èµĦæºĲåĴĮ": 7753,
      "ä¸¥è°¨": 7754,
      "åĪĩæĪĲ": 7755,
      "çļĦçĪ±å¥½": 7756,
      "æ¸©å®¤æ°Ķä½ĵçļĦæİĴæĶ¾": 7757,
      "æĪĳåĲ¬è¯´ä½ł": 7758,
      "æ¸ħæ´ģèĥ½æºĲ": 7759,
      "æ©Ļ": 7760,
      "ook": 7761,
      "ä¸²": 7762,
      "åľ¨å·¥ä½ľ": 7763,
      "æľīåĬĽ": 7764,
      "æĸĩä¸Ń": 7765,
      "èµµ": 7766,
      "å®¶ä¸Ń": 7767,
      "è·Į": 7768,
      "å¦Ĥä½ķéĢļè¿ĩ": 7769,
      "èĩ³ä»Ĭ": 7770,
      "çĶŁäº§æķĪçİĩ": 7771,
      "éħĴåĲ§": 7772,
      "ä½©æĪ´": 7773,
      "åİīå®³": 7774,
      "çļĦæĹ¶åĪ»": 7775,
      "æĸĳ": 7776,
      "æĸĩçī©": 7777,
      "æĿ¥åĲ¸å¼ķ": 7778,
      "çĶ¨éĢĶ": 7779,
      "å¤ļå²ģçļĦ": 7780,
      "åĨħæ¶µ": 7781,
      "ä¿ĿåŃĺ": 7782,
      "åĬłçıŃ": 7783,
      "å¤©æĸĩåŃ¦": 7784,
      "é¾Ł": 7785,
      "èĥĮæĻ¯ä¸ĭ": 7786,
      "ç½Ĺæĸ¯": 7787,
      "åĪ¶éĢłåķĨ": 7788,
      "æĬ½åĩº": 7789,
      "çĸ«æĥħæľŁéĹ´": 7790,
      "ç§ĳå¹»å°ıè¯´": 7791,
      "æŀģç«¯å¤©æ°Ķäºĭä»¶": 7792,
      "çļĦéĥ¨åĪĨ": 7793,
      "çļĦçĽ®çļĦ": 7794,
      "çļĦåŃ£èĬĤ": 7795,
      "ä¸įä¸Ģæł·": 7796,
      "æĪĳä»¬ä¹Łåı¯ä»¥": 7797,
      "å¹¶ä¸įèĥ½": 7798,
      "å·¥äºº": 7799,
      "åĽ½å¤ĸ": 7800,
      "çī¹æĸ¯": 7801,
      "ä¸»é¢ĺåı¥": 7802,
      "èģĶçĽŁ": 7803,
      "æľīæķĪçļĦæĸ¹æ³ķ": 7804,
      "äºīåıĸ": 7805,
      "æ¸¸æĪıä¸Ń": 7806,
      "æ²Ļæ¼ł": 7807,
      "æ²³æµģ": 7808,
      "çº¢æ¥¼æ¢¦": 7809,
      "æĺ¯åĲĹ": 7810,
      "è¿Ļéģĵ": 7811,
      "éľ¸": 7812,
      "æįī": 7813,
      "çĤº": 7814,
      "æĺ¯ä¸Ģæľ¬": 7815,
      "è¯ķéªĮ": 7816,
      "ä¸įåĲĮç±»åŀĭ": 7817,
      "èį¡": 7818,
      "åħ´èµ·": 7819,
      "åħ¨çĲĥæĢ§": 7820,
      "åŃ¦çĶŁçļĦåŃ¦ä¹ł": 7821,
      "æ¸ħæĸ°": 7822,
      "äº«çĶ¨": 7823,
      "æ¢¯": 7824,
      "åºĶå¯¹æ°ĶåĢĻåıĺåĮĸ": 7825,
      "çļĦçŁ¥è¯ĨåĴĮæĬĢèĥ½": 7826,
      "éļıæĹ¶éļıåľ°": 7827,
      "çļĦæĭĽèģĺ": 7828,
      "åľ¨æķĻèĤ²": 7829,
      "è¿ĻåĲ¬èµ·æĿ¥": 7830,
      "å®¶çļĦ": 7831,
      "å¿ĥä¸Ń": 7832,
      "è¡¨æĥħ": 7833,
      "èİĵ": 7834,
      "åıĤæķ°": 7835,
      "æµ·è¾¹": 7836,
      "ç§¯æŀģå½±åĵį": 7837,
      "å¸ĮèħĬ": 7838,
      "çŁŃç¼º": 7839,
      "èŀįåĮĸ": 7840,
      "åıĳæĮ¥çĿĢ": 7841,
      "æķıæį·": 7842,
      "å£®è§Ĥ": 7843,
      "æģĴæĺŁ": 7844,
      "å¸ĿåĽ½": 7845,
      "ãĢĤâĢľ": 7846,
      "ä¸ºäºĨè§£åĨ³": 7847,
      "æŀª": 7848,
      "ä¸Ģä¸ªå°ı": 7849,
      "æĸ°æľĭåıĭ": 7850,
      "å¦Ĥä½ķä½¿çĶ¨": 7851,
      "è®®é¢ĺ": 7852,
      "åĩıå°ĳæ¸©å®¤æ°Ķä½ĵæİĴæĶ¾": 7853,
      "åı£ç¢ĳ": 7854,
      "æĪĳä»¬åı¯ä»¥åľ¨": 7855,
      "äºĮåįģ": 7856,
      "æ¨¡åŀĭçļĦ": 7857,
      "äº¤éĢļå·¥åħ·": 7858,
      "åĪĿåŃ¦èĢħ": 7859,
      "æ´ĭèĳ±": 7860,
      "æĪĳæľĢè¿ĳåľ¨": 7861,
      "ä¼ĺçĤ¹åĴĮ": 7862,
      "èµļéĴ±": 7863,
      "çļĦæĶ¿çŃĸ": 7864,
      "çļĦçİ°è±¡": 7865,
      "è¿Ļä¸įä»ħ": 7866,
      "è¿Ļå°±æĺ¯": 7867,
      "å¥½å¤ļ": 7868,
      "ä½ľåĩº": 7869,
      "å¹¶æıĲåĩº": 7870,
      "åħ³çĪ±": 7871,
      "é«ĺåĵģè´¨": 7872,
      "ä¸»ä»»": 7873,
      "ç»Ļä»ĸ": 7874,
      "æŃ£æĺ¯": 7875,
      "åĪ¶æĪĲ": 7876,
      "æĹłéľĢ": 7877,
      "æ°´åĪĨ": 7878,
      "åħ¶ä»ĸçļĦ": 7879,
      "ä¹īåĬ¡": 7880,
      "æĪĳæĥ³è¦ģ": 7881,
      "æĪĲåĬŁçļĦä¼ģä¸ļå®¶": 7882,
      "äººå·¥æĻºèĥ½æĬĢæľ¯çļĦåıĳå±ķ": 7883,
      "æĿ¥èĩªäºİ": 7884,
      "èĵĦ": 7885,
      "æĲºå¸¦": 7886,
      "æ§½": 7887,
      "An": 7888,
      "åĴĮéŁ³ä¹Ĳ": 7889,
      "åĴĮç¤¾äº¤åªĴä½ĵ": 7890,
      "ç»³": 7891,
      "ä¸ªåı¥åŃĲ": 7892,
      "çļĦæ¿": 7893,
      "çŃ¹": 7894,
      "å¹¶åĪ¶å®ļ": 7895,
      "æĺ¯ä¸Ģæ¬¾": 7896,
      "å¦Ĥä½ķå½±åĵį": 7897,
      "å·²çŁ¥": 7898,
      "è´¨çĸĳ": 7899,
      "æľįçĶ¨": 7900,
      "å®ĥä»¬åľ¨": 7901,
      "è¿Ļç§įæĬĢæľ¯": 7902,
      "çŃĸåĪĴ": 7903,
      "è£ħä¿®": 7904,
      "ä½łåı¯ä»¥å°Ŀè¯ķ": 7905,
      "æħ¢è·ĳ": 7906,
      "åĽºå®ļ": 7907,
      "çļĦæłĩåĩĨ": 7908,
      "åĴĮæ´»åĬ¨": 7909,
      "åľ¨åķĨä¸ļ": 7910,
      "éĢĿ": 7911,
      "æĪĳä»¬çĽ¸ä¿¡": 7912,
      "åľ°éĵģ": 7913,
      "å¹¶éĩĩåıĸ": 7914,
      "è¿ĩæķı": 7915,
      "æĥ³åİ»": 7916,
      "çī¹è´¨": 7917,
      "æĸ¹æ³ķåĴĮ": 7918,
      "éļıæĦı": 7919,
      "ç§ĳæĬĢåıĳå±ķ": 7920,
      "çŁŃæļĤ": 7921,
      "é¤ĲåİħçļĦ": 7922,
      "çļĦæķħäºĭæĥħèĬĤ": 7923,
      "ä»¤äººæĥĬåı¹": 7924,
      "åĨ²åĩ»": 7925,
      "å¤ļæł·åĮĸ": 7926,
      "éĽĨä¸Ńç²¾åĬĽ": 7927,
      "çļĦæıĲåįĩ": 7928,
      "åĳĪçİ°åĩº": 7929,
      "]ï¼Į": 7930,
      "ur": 7931,
      "çļĦå®ļä¹ī": 7932,
      "åħĦ": 7933,
      "åĴĮéĹ®é¢ĺ": 7934,
      "çļĦæħ": 7935,
      "å¹¶å¼Ģå§ĭ": 7936,
      "éĿ¢ç²ī": 7937,
      "èĢĮéĿŀ": 7938,
      "è¿Ļä¸ªåŁİå¸Ĥ": 7939,
      "çİ¯å¢ĥä¸ĭ": 7940,
      "äºĨè§£äºĨ": 7941,
      "ä½łçļĦå·¥ä½ľ": 7942,
      "çĮ´": 7943,
      "éĺ²æĻĴ": 7944,
      "è¿ĺæľīåĬ©äºİ": 7945,
      "åĿļéŁ§": 7946,
      "åı°æ¹¾": 7947,
      "æĪĳä¼ļèĢĥèĻĳ": 7948,
      "æł¡åĽŃ": 7949,
      "é©¬æĭī": 7950,
      "å²Ľå±¿": 7951,
      "ä¾¿åĪ©åĴĮ": 7952,
      "éŀĭåŃĲ": 7953,
      "éĢĥèĦ±": 7954,
      "è¿ľç¨ĭå·¥ä½ľ": 7955,
      "çļĦç³»": 7956,
      "å¯ĴåĨ·": 7957,
      "æģ°å½ĵ": 7958,
      "BERT": 7959,
      "é³": 7960,
      "çļĦæĸ¹åĲĳ": 7961,
      "æĸ¼": 7962,
      "ä»¥å®ŀçİ°": 7963,
      "è¿Ļå°ģ": 7964,
      "æľ¬æĿ¥": 7965,
      "æĤ¨æľīä»Ģä¹Ī": 7966,
      "èµ·åĪ°": 7967,
      "èĩªå·±çļĦçĶŁæ´»": 7968,
      "è§Ĵèī²B": 7969,
      "é¡¾éĹ®": 7970,
      "ä»¤äººåħ´å¥ĭ": 7971,
      "èĪŀåı°": 7972,
      "äººæ°ĳå¸ģ": 7973,
      "ç¾İåĳ³çļĦ": 7974,
      "åī¯ä½ľçĶ¨": 7975,
      "ĩæ·ĭ": 7976,
      "çļĦéķ¿": 7977,
      "æĪĳåıªæĺ¯": 7978,
      "åĮĻ": 7979,
      "æıĲéĹ®": 7980,
      "æĮģä¹ħ": 7981,
      "ç¡ķ": 7982,
      "åı¯èĥ½å¯¹": 7983,
      "åİ»è¿ĩ": 7984,
      "åĪ«çļĦ": 7985,
      "æĮĩåĩºäºĨ": 7986,
      "äº§çĶŁçļĦ": 7987,
      "æ¤İ": 7988,
      "ç¤¼çī©": 7989,
      "è°·çī©": 7990,
      "èģĮä¸ļçĶŁæ¶¯ä¸Ń": 7991,
      "æĹłäººé©¾é©¶": 7992,
      "è¿Ļåº§åŁİå¸Ĥ": 7993,
      "æıŃç¤ºäºĨ": 7994,
      "çļĦå¢ŀéķ¿": 7995,
      "åĴĮèģĮä¸ļ": 7996,
      "è¿Ļæĸ¹éĿ¢": 7997,
      "åı¯ä»¥è¯´": 7998,
      "ä¸»ç®¡": 7999,
      "ä¸ĢäºĽæĸ°": 8000,
      "æ·ĩæ·ĭ": 8001,
      "å§ĳ": 8002,
      "èĥİ": 8003,
      "æĹħæ¸¸çĽ®çļĦåľ°": 8004,
      "åĨ°æ·ĩæ·ĭ": 8005,
      "å¥¶éħª": 8006,
      "çļĦä¸»é¢ĺæĺ¯": 8007,
      "ä¹¡æĿĳ": 8008,
      "çļĦçĹħæĥħ": 8009,
      "åı¯ä»¥çľĭåĩº": 8010,
      "çļĦæ¤įçī©": 8011,
      "äºĨä¸įèµ·çļĦçĽĸèĮ¨æ¯Ķ": 8012,
      "Ľèµ·": 8013,
      "çļĦåİĭåĬĽ": 8014,
      "çļĦå·¥åħ·": 8015,
      "åĴĮæİ¢ç´¢": 8016,
      "åĴĮèĦĤèĤª": 8017,
      "åĲµ": 8018,
      "ä¸įåı¯èĥ½": 8019,
      "çİ»": 8020,
      "ä¸ºæĪĳ": 8021,
      "ä»ĸåĨ³å®ļ": 8022,
      "ä½Ĩå¥¹": 8023,
      "èĤ©": 8024,
      "åīįæīĢæľª": 8025,
      "æ°´ä¸Ń": 8026,
      "æ²¡æľīä»Ģä¹Ī": 8027,
      "éĢīæĭ©äºĨ": 8028,
      "æľªæĿ¥çļĦåıĳå±ķ": 8029,
      "ä»¥åıĬå¯¹": 8030,
      "å»ºç«ĭèµ·": 8031,
      "æĺ¯åĲ¦ä¼ļ": 8032,
      "äºĨä¸Ģä»½": 8033,
      "çŁ¥è¯ĨåĴĮ": 8034,
      "ä»İèĢĮæĽ´å¥½åľ°": 8035,
      "éĻįä½İæĪĲæľ¬": 8036,
      "åĲ¯åĬ¨": 8037,
      "çĽĲåĴĮ": 8038,
      "ç¼©çŁŃ": 8039,
      "ä¿ĿæĮģåģ¥åº·çļĦçĶŁæ´»æĸ¹å¼ı": 8040,
      "èģĶåĲĪåĽ½": 8041,
      "ä¸Ģåº§": 8042,
      "æľīæĽ´å¤ļçļĦ": 8043,
      "æĿ¥è¿Ľè¡Į": 8044,
      "åı¯ä»¥å¢ŀåĬł": 8045,
      "æĽ´æ³¨éĩį": 8046,
      "å¹¶åĲĳ": 8047,
      "åĵģåĳ³": 8048,
      "æ¯Ķä¾ĭ": 8049,
      "æīĭæ³ķ": 8050,
      "åĲĦè¡Į": 8051,
      "é£İæļ´": 8052,
      "ä¸ŃçļĦä¸Ģä¸ª": 8053,
      "æĮĩçļĦæĺ¯": 8054,
      "çĥŃè¡·": 8055,
      "çİ°åľ¨çļĦ": 8056,
      "çĽ¸åħ³ä¿¡æģ¯": 8057,
      "è¡Ģç³ĸ": 8058,
      "æī§å¯¼": 8059,
      "æ´Ĺæīĭ": 8060,
      "Lucas": 8061,
      "èº«ä½ĵåĴĮå¿ĥçĲĨåģ¥åº·": 8062,
      "å¤ĩåıĹåħ³æ³¨": 8063,
      "é¡µéĿ¢": 8064,
      "å®ı": 8065,
      "åĬ²": 8066,
      "è¯±": 8067,
      "ä»¥èİ·å¾Ĺ": 8068,
      "æĪĳä»¬èĥ½å¤Ł": 8069,
      "ä½łåĸľæ¬¢": 8070,
      "ä¸ĭä¸ĢæŃ¥": 8071,
      "æľĢåħ·": 8072,
      "é«ĺçĥŃéĩı": 8073,
      "éĤ¦": 8074,
      "åĿĳ": 8075,
      "å¸¦æľī": 8076,
      "èº«ä½ĵä¸įéĢĤ": 8077,
      "å¤´åıĳ": 8078,
      "æľĭåıĭä»¬": 8079,
      "ä¸¥å³»": 8080,
      "åŁºäºİä»¥ä¸Ĭè¿Ļæ®µæĸĩæľ¬æĢ»ç»ĵåħ¶æĳĺè¦ģåĨħå®¹": 8081,
      "èĥĮæĻ¯åĴĮ": 8082,
      "èĨ³": 8083,
      "åľ£æ¯į": 8084,
      "æ¯«æĹł": 8085,
      "åĲĦç§įåĲĦæł·çļĦ": 8086,
      "ä»¥ä¸ĭåĩłä¸ªæĸ¹éĿ¢": 8087,
      "ç²®é£Ł": 8088,
      "éŁ©åĽ½": 8089,
      "çī¹æĸ¯æĭī": 8090,
      "æĿľ": 8091,
      "çĶ¨æ°´": 8092,
      "æ°Ľ": 8093,
      "åħ¬å¯ĵ": 8094,
      "çĿĢéĩį": 8095,
      "å°±è¦ģ": 8096,
      "åĬªåĬĽå·¥ä½ľ": 8097,
      "ä¼ĳæģ¯åĴĮ": 8098,
      "éģĹä¼ł": 8099,
      "ä¸»ä¹īèĢħ": 8100,
      "ç§»åĬ¨æĶ¯ä»ĺ": 8101,
      "æĩĤå¾Ĺ": 8102,
      "æļĹç¤º": 8103,
      "--------": 8104,
      "å¦»åŃĲ": 8105,
      "çłįä¼Ĳ": 8106,
      "çļĦèĥ½æºĲ": 8107,
      "åľ¨å¯¹è¯Ŀä¸Ń": 8108,
      "ä¸įå¼Ģ": 8109,
      "æĸ°äºº": 8110,
      "åĲĦä¸ļ": 8111,
      "çŁ³å¤´": 8112,
      "èĩªçĶ±èģĮä¸ļ": 8113,
      "åħĭæľįåĽ°éļ¾": 8114,
      "èĦ±é¢ĸ": 8115,
      "æ½ľåľ¨å®¢æĪ·": 8116,
      "ä¸ĢäºĽäººè®¤ä¸º": 8117,
      "å´Ľèµ·": 8118,
      "çĺ¤": 8119,
      "çļĦæĬĢèĥ½åĴĮçŁ¥è¯Ĩ": 8120,
      "çĨ¬å¤ľ": 8121,
      "çļĦæ¿Ģ": 8122,
      "åĲĦè¡ĮåĲĦä¸ļ": 8123,
      "åĴĮå®¢æĪ·": 8124,
      "ä¸Ģçīĩ": 8125,
      "åľ¨çĶŁæ´»ä¸Ń": 8126,
      "åı¯çĶ¨äºİ": 8127,
      "ä¸Ńèİ·å¾Ĺ": 8128,
      "çŃĽ": 8129,
      "æĽ´åģ¥åº·": 8130,
      "èµĶ": 8131,
      "çļĦçª": 8132,
      "è¯Ńåı¥": 8133,
      "æıĲé«ĺèĩªå·±": 8134,
      "è¿Ľè¡Įä¸ĢäºĽ": 8135,
      "ä¸¤å¹´": 8136,
      "æ»¨": 8137,
      "å¹¿åľº": 8138,
      "åħ¨çĲĥåĮĸ": 8139,
      "ç®ĢåĮĸ": 8140,
      "éĩįæĸ°æİĴåĪĹ": 8141,
      "è¥¿æĸ¹": 8142,
      "ç¼ºéĻ·": 8143,
      "ä¸ĢåĲįå¹´è½»": 8144,
      "å¨±ä¹Ĳæĸ¹å¼ı": 8145,
      "å±ŀæĢ§": 8146,
      "åľ¨åĮ»çĸĹä¿Ŀåģ¥": 8147,
      "ç»´çĶŁç´łåĴĮ": 8148,
      "è¿ĶåĽŀ": 8149,
      "å¾ĴæŃ¥": 8150,
      "åĻªéŁ³": 8151,
      "åĪĽå§ĭäºº": 8152,
      "é£ŀéĢŁåıĳå±ķ": 8153,
      "¯çīĩ": 8154,
      "å®ħ": 8155,
      "è¯ŀ": 8156,
      "ä¸įåĪ©": 8157,
      "æĽ´åĩĨç¡®åľ°": 8158,
      "æľĢèĳĹåĲįçļĦ": 8159,
      "çŃīæ´»åĬ¨": 8160,
      "éľĢè¦ģçļĦ": 8161,
      "ä½Ĩä»ĸä»¬": 8162,
      "æĸĩç«łè¿ĺ": 8163,
      "çĽ¸ç»ĵåĲĪ": 8164,
      "ä»İä¸ļ": 8165,
      "åģļä¸Ģä¸ª": 8166,
      "éĢīæĭ©éĢĤåĲĪ": 8167,
      "æ¼Ķå¥ı": 8168,
      "è¡¨è¾¾æĸ¹å¼ı": 8169,
      "åĺĽ": 8170,
      "èĪĴéĢĤçļĦ": 8171,
      "éĴĪå¯¹æĢ§": 8172,
      "åİ¨æĪ¿": 8173,
      "çļĦæĳĦåħ¥éĩı": 8174,
      "çļĦçĮ«": 8175,
      "VR": 8176,
      "åĴĮåĨ³çŃĸ": 8177,
      "æĪĳåĨĻ": 8178,
      "åı¯çĶ¨": 8179,
      "åħ¶å®ĥ": 8180,
      "éĢļè®¯": 8181,
      "å»ī": 8182,
      "è¯¥æĸ¹æ³ķ": 8183,
      "ä¸ĢäºĽåħ³äºİ": 8184,
      "å¦Ĥæŀľä¸į": 8185,
      "æ¨ª": 8186,
      "åĩıå°ĳæµªè´¹": 8187,
      "è§ģäºĨ": 8188,
      "åįİä¸º": 8189,
      "æķħäºĭä¸Ń": 8190,
      "è¿ĺåı¯ä»¥éĢļè¿ĩ": 8191,
      "åģ¥åº·çļĦé¥®é£Ł": 8192,
      "ä¼´ä¾£": 8193,
      "å®ĺæĸ¹": 8194,
      "çļĦçĥŃæĥħ": 8195,
      "çĪĨçĤ¸": 8196,
      "çļĦæ¸©åº¦": 8197,
      "æľ´ç´ł": 8198,
      "łæª": 8199,
      "æĿ¥æĶ¹åĸĦ": 8200,
      "å¤ļé¡¹": 8201,
      "å¹¶è¦ģæ±Ĥ": 8202,
      "åģ¿": 8203,
      "å¿ĥèĤº": 8204,
      "æĤ¨å¯¹": 8205,
      "åı¸æľº": 8206,
      "è®©å¥¹": 8207,
      "ä»Ģä¹ĪçļĦ": 8208,
      "è¨Ģè®º": 8209,
      "æķ°æį®åºĵ": 8210,
      "éļıä¹ĭ": 8211,
      "è¶ĬæĿ¥è¶Ĭå¹¿æ³Ľ": 8212,
      "æŃ£åľ¨æĶ¹åıĺ": 8213,
      "æīĵåĩ»": 8214,
      "æĪĳä»¬åı¯ä»¥ä¸Ģèµ·": 8215,
      "è®¡ç®Ĺæľºç³»ç»Ł": 8216,
      "ç¤¾äº¤åªĴä½ĵå¹³åı°": 8217,
      "åĨĻä½ľèĥ½åĬĽ": 8218,
      "èĩªçĶ±åĴĮ": 8219,
      "åŁºæľ¬çļĦ": 8220,
      "éĩİé¤Ĳ": 8221,
      "éĨĭ": 8222,
      "çļĦæµĭ": 8223,
      "ä¼ļè®®ä¸Ĭ": 8224,
      "æ¶Īè´¹èĢħçļĦ": 8225,
      "çļĦä¸»é¢ĺåĴĮ": 8226,
      "æĥ³è±¡åĬĽ": 8227,
      "łæª¬": 8228,
      "CO": 8229,
      "èĺ": 8230,
      "çļĦåĲįåŃĹ": 8231,
      "çļĦè¡¨æ¼Ķ": 8232,
      "æĺĨ": 8233,
      "æĿī": 8234,
      "ä¸ºä¸Ģä¸ª": 8235,
      "æĬ¹": 8236,
      "ä¹Łå¯¹": 8237,
      "å®¶ä¹¡": 8238,
      "åĸĤ": 8239,
      "ä¼ĺç¾İ": 8240,
      "è§Ĵèī²A": 8241,
      "èıĩ": 8242,
      "2000": 8243,
      "æ®µèĲ½ä¸Ń": 8244,
      "éħįç½®": 8245,
      "è®©æĪĳæĦŁåĪ°": 8246,
      "åĤ²": 8247,
      "Lin": 8248,
      "è¿Ļé¡¹æĬĢæľ¯": 8249,
      "çĽ¸äºĴä½ľçĶ¨": 8250,
      "æĽ¿æį¢": 8251,
      "åĩłå¹´ä¸Ń": 8252,
      "å°ıæĺİåĴĮå°ıçº¢": 8253,
      "çıĬçĳļ": 8254,
      "å¥¥è¿Ĳä¼ļ": 8255,
      "ĠM": 8256,
      "ä¸Ģå¼Ģå§ĭ": 8257,
      "æĺ¯äººå·¥æĻºèĥ½": 8258,
      "å·«": 8259,
      "ä¸įä½³": 8260,
      "æĪĳä»¬å°±": 8261,
      "ä½łåĳ¢": 8262,
      "æŀļ": 8263,
      "å°ıåŃ¦çĶŁ": 8264,
      "åĬłä»¥": 8265,
      "èĢĮå·²": 8266,
      "åľºåľ°": 8267,
      "éĤ£æĪĳ": 8268,
      "åŀ«": 8269,
      "å¿«éĢĴ": 8270,
      "ä¸ŃåĽ½åı¤ä»£": 8271,
      "åĪĻè®¤ä¸º": 8272,
      "å»ºç«ĭäºĨ": 8273,
      "çİ¯ä¿ĿéĹ®é¢ĺ": 8274,
      "äºĨä¸Ģæ¬¾": 8275,
      "æ¿ĢåĬ¨": 8276,
      "ç§»æ°ĳ": 8277,
      "çļĦæĬĢæľ¯åĴĮ": 8278,
      "åı¯ä»¥å¸®åĬ©æĪĳä»¬æĽ´å¥½åľ°": 8279,
      "ç¨³å®ļæĢ§": 8280,
      "åİŁå§ĭæĸĩç«ł": 8281,
      "çºłçº·": 8282,
      "åĪłéĻ¤": 8283,
      "ia": 8284,
      "çļĦä¹¦ç±į": 8285,
      "åĴĮå¤ĦçĲĨ": 8286,
      "è¿ĩæ»¤": 8287,
      "æĻºèĥ½å®¢æľį": 8288,
      "æıĲä¾ĽäºĨä¸Ģä¸ª": 8289,
      "æ·±æµ·": 8290,
      "è§£åĨ³è¿ĻäºĽéĹ®é¢ĺ": 8291,
      "åĩĨåĪĻ": 8292,
      "éļıçĿĢäººå·¥æĻºèĥ½æĬĢæľ¯çļĦ": 8293,
      "çİ°ä»£åĮĸ": 8294,
      "çĭĹçĭĹ": 8295,
      "è°¢è°¢æĤ¨çļĦ": 8296,
      "å·®è·Ŀ": 8297,
      "çļĦæł¹": 8298,
      "ä¾Ŀæį®": 8299,
      "çĻ¾åº¦": 8300,
      "åħ¸åŀĭ": 8301,
      "åĺī": 8302,
      "æ²Ļæĭī": 8303,
      "å®¡ç¾İ": 8304,
      "é¹ħ": 8305,
      "è¯¸å¦Ĥ": 8306,
      "éļĶç¦»": 8307,
      "çĽĪåĪ©": 8308,
      "çļĦæģĲæĥ§": 8309,
      "çļĦæľĢ": 8310,
      "åĴĮä¿ĿæĬ¤": 8311,
      "åľ¨ä»ĸ": 8312,
      "ä¸įå¿ħè¦ģ": 8313,
      "å¼¥": 8314,
      "æĭĨ": 8315,
      "åĽłåħ¶": 8316,
      "åħ¬äº¤": 8317,
      "äº¤æį¢": 8318,
      "å¸®åĬ©æĤ¨": 8319,
      "å¦Ĥä½ķæĽ´å¥½åľ°": 8320,
      "åĲĳåīį": 8321,
      "çłĶç©¶çĶŁ": 8322,
      "äº§åĵģæĪĸæľįåĬ¡": 8323,
      "å¼łåįİ": 8324,
      "æĺŁéĻħ": 8325,
      "åı²ä¸Ĭ": 8326,
      "å°Ŀè¯ķæĸ°çļĦ": 8327,
      "çĶ·çĶŁ": 8328,
      "å±±èĦī": 8329,
      "è¿ĺåı¯ä»¥æıĲé«ĺ": 8330,
      "é«ĺæķĪçļĦ": 8331,
      "ç»©æķĪ": 8332,
      "é¢Ħè®Ńç»ĥæ¨¡åŀĭ": 8333,
      "çĪ¸çĪ¸": 8334,
      "ä¹Łå¸¦æĿ¥äºĨä¸ĢäºĽ": 8335,
      "åı¯è¯»æĢ§": 8336,
      "æĪĳçľĭ": 8337,
      "è¿Ļä¼ļ": 8338,
      "ä¸įåıĹ": 8339,
      "äº¤éĻħ": 8340,
      "äººå·¥æĻºèĥ½çļĦåºĶçĶ¨": 8341,
      "èĥ¶": 8342,
      "æµģéĩı": 8343,
      "åĢĻéĢī": 8344,
      "åħ¨çĲĥæ°ĶåĢĻ": 8345,
      "æĮĳæĪĺæĢ§": 8346,
      "çŁ¥è¯ĨåĴĮæĬĢèĥ½": 8347,
      "åĽ¾çīĩ": 8348,
      "ä¸ĭéĿ¢æĺ¯": 8349,
      "æĪĲéķ¿åĴĮ": 8350,
      "äºĶå¹´": 8351,
      "å¥ĸé¡¹": 8352,
      "æľĢå¥½çļĦæľĭåıĭ": 8353,
      "æľīæīĢå¸®åĬ©": 8354,
      "åĩ½æķ°": 8355,
      "èĦ±é¢ĸèĢĮåĩº": 8356,
      "æĪĳæīĢ": 8357,
      "èĩªè±ª": 8358,
      "ä½Ĩä¸į": 8359,
      "è¿ĺåı¯ä»¥å¸®åĬ©": 8360,
      "æĻºåķĨ": 8361,
      "æĻºèĥ½æīĭè¡¨": 8362,
      "éļ¾éģĵ": 8363,
      "åĩıå°ĳç¢³æİĴæĶ¾": 8364,
      "ï¼ģâĢĿ": 8365,
      "æĪĳä»¬åı¯ä»¥ä»İ": 8366,
      "äº§çĶŁå½±åĵį": 8367,
      "è¿ľè¶³": 8368,
      "è¿ĺæľīä»Ģä¹Ī": 8369,
      "éĺ¿å°Ķ": 8370,
      "çļĦæ²ŁéĢļåĴĮ": 8371,
      "æģĲé¾Ļ": 8372,
      "çģµæ´»æĢ§": 8373,
      "ä¼łæĦŁåĻ¨": 8374,
      "DNA": 8375,
      "ad": 8376,
      "us": 8377,
      "æĹĹ": 8378,
      "é«ĺç®¡": 8379,
      "ä¸İæĪĳ": 8380,
      "è¡¨è¿°": 8381,
      "å¹³æĸ¹": 8382,
      "èĩªçĦ¶ä¿ĿæĬ¤": 8383,
      "åĩıå°ĳäºĨ": 8384,
      "æİĴéĻ¤": 8385,
      "çŁŃæĹ¶éĹ´åĨħ": 8386,
      "å¸ĥæĸ¯": 8387,
      "éĻĲäºİ": 8388,
      "å®ŀéĻħæĥħåĨµ": 8389,
      "æ´ŀå¯Ł": 8390,
      "è·¨æĸĩåĮĸ": 8391,
      "åį·ç§¯": 8392,
      "çĽ¸ä¼¼ä¹ĭå¤Ħ": 8393,
      "è¡Ĺéģĵ": 8394,
      "åĪĨåĪ«æĺ¯": 8395,
      "æ¶Įçİ°": 8396,
      "èĲĿåįľ": 8397,
      "Ġä¸Ģä½į": 8398,
      "æĺ¯ä¸ĸçķĮä¸ĬæľĢ": 8399,
      "åľ¨åħ¬åı¸": 8400,
      "å¹¶è§£éĩĬ": 8401,
      "åĪĨåī²": 8402,
      "æ·Ģ": 8403,
      "éĢļè¿ĩä½¿çĶ¨": 8404,
      "æ¡¶": 8405,
      "æķĻåłĤ": 8406,
      "æĬ¤çĲĨ": 8407,
      "åŃĹç¬¦": 8408,
      "åĽłä¸ºæĪĳ": 8409,
      "åİĨåı²åĴĮæĸĩåĮĸ": 8410,
      "å¤´æĻķ": 8411,
      "åħ·æľīéĩįè¦ģ": 8412,
      "å¾ħéģĩ": 8413,
      "çļĦçĶŁæ´»ä¹łæĥ¯": 8414,
      "é£Łåĵģå®īåħ¨": 8415,
      "çĸ¾çĹħåĴĮ": 8416,
      "æ¯ıå¤©éĥ½": 8417,
      "å¾®åįļ": 8418,
      "è§ĦåĪĴåĴĮ": 8419,
      "ä¾ĿéĿł": 8420,
      "çļĦæ°´å¹³": 8421,
      "çļĦçģ«": 8422,
      "å°½éĩıéģ¿åħį": 8423,
      "çļĦæĢĿç»´æĸ¹å¼ı": 8424,
      "åħĪè¿ĽçļĦ": 8425,
      "çļĦçĤ¹": 8426,
      "æĪĲå¹´äºº": 8427,
      "æĭ³": 8428,
      "æ´¥": 8429,
      "çļĦçħ": 8430,
      "ä»ĸä»¬åı¯ä»¥": 8431,
      "åıĳå±ķåĴĮ": 8432,
      "æ¯Ķçī¹": 8433,
      "åİ»çľĭ": 8434,
      "åĬŁèĥ½åĴĮ": 8435,
      "éļĲç§ģéĹ®é¢ĺ": 8436,
      "éĿĴæĺ¥": 8437,
      "å®ĩå®ĻçļĦ": 8438,
      "è·¨è¶Ĭ": 8439,
      "çļĦç¥Ŀ": 8440,
      "çļĦæ¸¸å®¢": 8441,
      "èĤºçĤİ": 8442,
      "ç¦ģæŃ¢": 8443,
      "é¬¼": 8444,
      "äººèĦ¸è¯ĨåĪ«": 8445,
      "çļĦçĽ´": 8446,
      "åŃ¦ä¹łèĭ±è¯Ń": 8447,
      "å·¥ä½ľèĢħ": 8448,
      "å½±åĵįçĿĢ": 8449,
      "ä¸įåĲĮæĸĩåĮĸ": 8450,
      "çĶµå½±ä¸Ń": 8451,
      "è§ģè¿ĩ": 8452,
      "ä¸ŃåĽ½äºº": 8453,
      "å®¢æĪ·çļĦéľĢæ±Ĥ": 8454,
      "æħĮ": 8455,
      "åįİä¸½": 8456,
      "çĶµåŃĲæ¸¸æĪı": 8457,
      "çļĦçĶŁæ´»ä¸Ń": 8458,
      "å¥ĩå¦Ļ": 8459,
      "ä¼°è®¡": 8460,
      "æķ£æĸĩ": 8461,
      "æ¸ħæĻ°åľ°": 8462,
      "å®ĩèĪª": 8463,
      "èį£å¹¸": 8464,
      "å¯ºåºĻ": 8465,
      "Dav": 8466,
      "çļĦå¯¹è¯Ŀ": 8467,
      "æĪĳä¸ĢçĽ´åľ¨": 8468,
      "åºĶåĮħæĭ¬": 8469,
      "ä¿¡èªī": 8470,
      "ä»¥ä¸ĭæĺ¯ä¸Ģä¸ª": 8471,
      "åĲĦç±»": 8472,
      "æŀģåľ°": 8473,
      "ä½Ĩæĺ¯æĪĳä»¬": 8474,
      "ç¯ĩå°ıè¯´": 8475,
      "æĢ»éĥ¨": 8476,
      "æĪĲä¸ºäºĨä¸Ģä¸ª": 8477,
      "èĦĬ": 8478,
      "ä¸įä»ħèĥ½å¤Ł": 8479,
      "æľºåĻ¨åŃ¦ä¹łæĬĢæľ¯": 8480,
      "åºĹéĵº": 8481,
      "åĵģçīĮçļĦ": 8482,
      "èī¾ä¼¦": 8483,
      "çĶµè§ĨèĬĤçĽ®": 8484,
      "è¾ħå¯¼": 8485,
      "å¼ķåıĳäºĨ": 8486,
      "æ²¿çĿĢ": 8487,
      "çĴĥ": 8488,
      "Pet": 8489,
      "çļĦè´¡çĮ®": 8490,
      "ä»ĩ": 8491,
      "ä½łæīĢ": 8492,
      "éĩįéĩı": 8493,
      "ä¸ĭäºĨ": 8494,
      "è¿ĩåĪĨ": 8495,
      "éľĢè¦ģéĩĩåıĸ": 8496,
      "éľĢè¦ģè¿Ľä¸ĢæŃ¥": 8497,
      "åħ¬çĽĬ": 8498,
      "åģļçļĦäºĭæĥħ": 8499,
      "é¥®åĵģ": 8500,
      "æĪĳçļĦå·¥ä½ľ": 8501,
      "æĶ¶èĹı": 8502,
      "åºıåĪĹ": 8503,
      "çİĭæĺŁ": 8504,
      "è¿½éĢĲ": 8505,
      "æĹħè¡Įä¸Ń": 8506,
      "çĸ¾çĹħçļĦ": 8507,
      "åģļåĩºåĨ³çŃĸ": 8508,
      "éĶĻè¯¯çļĦ": 8509,
      "æĺİç¡®çļĦ": 8510,
      "çļĦæĢĿè·¯": 8511,
      "çľŁçļĦåĲĹ": 8512,
      "æļ´éľ²": 8513,
      "æĸĩåĮĸåĴĮåİĨåı²": 8514,
      "ç¤¼ä»ªæĸĩåĮĸ": 8515,
      "çļĦæ²»çĸĹæĸ¹æ¡Ī": 8516,
      "ä¾ĽåºĶåķĨ": 8517,
      "å±ĢéĻĲæĢ§": 8518,
      "å´©æºĥ": 8519,
      "èĨ³é£Ł": 8520,
      "hone": 8521,
      "çļĦåľºæĻ¯": 8522,
      "æĪĳèĥ½": 8523,
      "æĪĳçľĭåĪ°": 8524,
      "åĩĳ": 8525,
      "åİ¦": 8526,
      "åľ°åĽ¾": 8527,
      "å¹¶éģ¿åħį": 8528,
      "åĨħç§ĳåĮ»çĶŁ": 8529,
      "åĬłçĥŃ": 8530,
      "æľºåľº": 8531,
      "é£Łå®¢": 8532,
      "éĿŀæ³ķ": 8533,
      "å¸®åĬ©ä»ĸ": 8534,
      "åı¯èĥ½çļĦ": 8535,
      "åºĶè¯¥åĮħæĭ¬": 8536,
      "æİ¨åĩºäºĨ": 8537,
      "æīįèĥ½æĽ´å¥½åľ°": 8538,
      "éħįæĸĻ": 8539,
      "ç«ŀèµĽ": 8540,
      "æĪ¿åľ°äº§": 8541,
      "ä¸¾æİª": 8542,
      "æĪĳå¾Īåĸľæ¬¢": 8543,
      "æĬ±æĢ¨": 8544,
      "ä¾ĽåºĶéĵ¾": 8545,
      "da": 8546,
      "ï¼ļ<": 8547,
      "ä¸ºäºº": 8548,
      "æĪĳä»¬éĿŀå¸¸": 8549,
      "æ³¥": 8550,
      "å¹¶ä¸įæĸŃ": 8551,
      "åŃ¦ä¹łè®¡åĪĴ": 8552,
      "åĲĪæĪĲ": 8553,
      "äº¤åıī": 8554,
      "æĹłåħ³": 8555,
      "åĲĮæĹ¶ä¹Łåı¯ä»¥": 8556,
      "è®¾ç«ĭ": 8557,
      "éļıåĲİ": 8558,
      "å¥³äºº": 8559,
      "æ²»çĲĨ": 8560,
      "åĬªåĬĽåĴĮ": 8561,
      "çħİ": 8562,
      "æ²»çĸĹæĸ¹æ¡Ī": 8563,
      "éĶĢåĶ®ç»ıçĲĨ": 8564,
      "åıªæľīè¿Ļæł·": 8565,
      "å°½ç®¡å¦ĤæŃ¤": 8566,
      "ç§»åĬ¨è®¾å¤ĩ": 8567,
      "å¤§åĪ©äºļ": 8568,
      "ä¸¥æł¼çļĦ": 8569,
      "å®ŀä¹łçĶŁ": 8570,
      "çĶľçĤ¹": 8571,
      "æµĵåİļçļĦåħ´è¶£": 8572,
      "åĴĮä»·åĢ¼": 8573,
      "åİĮ": 8574,
      "åºĶèģĺ": 8575,
      "æ´»è·ĥ": 8576,
      "ä½¿äºº": 8577,
      "ä¸ĢäºĽæĸ°çļĦ": 8578,
      "å¤ĸçķĮ": 8579,
      "æŃ£ä¹ī": 8580,
      "éĿŀå¸¸æľīè¶£": 8581,
      "å¥³ç¥ŀ": 8582,
      "å°Ŀè¯ķä¸Ģä¸ĭ": 8583,
      "è®²è§£": 8584,
      "çļĦæİ§": 8585,
      "æĵ¦": 8586,
      "åī§æľ¬": 8587,
      "éĢłæĪĲçļĦ": 8588,
      "çĳ°": 8589,
      "ç«Ļåľ¨": 8590,
      "çļĦæł·": 8591,
      "åĮħåĲ«äºĨ": 8592,
      "ç½Ĺé©¬": 8593,
      "æ¸ħæĻ°çļĦ": 8594,
      "åĨħå¿ĥçļĦ": 8595,
      "æµªè´¹æĹ¶éĹ´": 8596,
      "è¯ģæĺİäºĨ": 8597,
      "è±ĨèħĲ": 8598,
      "éĢĤéĩıçļĦ": 8599,
      "æľīçĽĬäºİ": 8600,
      "çļĦçĪ¶æ¯į": 8601,
      "Face": 8602,
      "book": 8603,
      "çļĦä¸ĵä¸ļ": 8604,
      "çļĦé¢ľèī²": 8605,
      "åĴĮæľī": 8606,
      "åĴĮä¸ĢäºĽ": 8607,
      "åĴĮåķĨä¸ļ": 8608,
      "ä»¥æĽ´å¥½åľ°": 8609,
      "å¯Ĥ": 8610,
      "è¿Ļåı¯èĥ½": 8611,
      "å¯¹èĩªå·±": 8612,
      "åĬĽåŃ¦": 8613,
      "åħ¶åľ¨": 8614,
      "å°Ĩè¿ĻäºĽ": 8615,
      "å½ĵä»ĸ": 8616,
      "èµ·äºĨ": 8617,
      "åıĸæ¶Ī": 8618,
      "åįķçĭ¬": 8619,
      "æ´»åĬ¨åĴĮ": 8620,
      "æīĵç¯®çĲĥ": 8621,
      "éĹ¨åı£": 8622,
      "è¯¦ç»Ĩä¿¡æģ¯": 8623,
      "å®¶åºŃåĴĮ": 8624,
      "åłª": 8625,
      "èµŀèµı": 8626,
      "æ¾³å¤§åĪ©äºļ": 8627,
      "çļĦå¤ĸ": 8628,
      "çļĦçĶŁçī©": 8629,
      "åĴĮæĢĿèĢĥ": 8630,
      "ä¸ĢçĶŁ": 8631,
      "ä¸įå½ĵ": 8632,
      "å¯¹ä½ł": 8633,
      "å¥½æľĭåıĭ": 8634,
      "å¹¶èİ·å¾Ĺ": 8635,
      "æĤ¨æĺ¯åĲ¦": 8636,
      "çŁ¶": 8637,
      "ä¸İä½ł": 8638,
      "çľĭä¼¼": 8639,
      "è¢«çĶ¨äºİ": 8640,
      "ä¹ĲåĻ¨": 8641,
      "å¢ŀè¿Ľ": 8642,
      "æµģæĦŁ": 8643,
      "è½»è½»": 8644,
      "çļĦæķĳ": 8645,
      "åıįèĢĮ": 8646,
      "å¤±è¸ª": 8647,
      "æ¸ħæ´Ĺ": 8648,
      "æĪıåī§": 8649,
      "åįĹéĥ¨": 8650,
      "åıĳçĶŁåľ¨": 8651,
      "æ¸Ĳæ¸Ĳ": 8652,
      "å½Ĵçº³": 8653,
      "è¿Ļä¹Īå¤ļ": 8654,
      "çĩĥçĥ§": 8655,
      "æĸ°é²ľçļĦ": 8656,
      "åıĸä»£äººç±»": 8657,
      "å¾Ĺåĩºç»ĵè®º": 8658,
      "æĦ¤æĢĴ": 8659,
      "çİ»çĴĥ": 8660,
      "çļĦä¸Ń": 8661,
      "æĺ¯åħ¨çĲĥ": 8662,
      "å¿ĥéĩĮ": 8663,
      "è¿ĻäºĽæĬĢå·§": 8664,
      "åĪ°äºĨä¸Ģä¸ª": 8665,
      "æ¸©åĴĮ": 8666,
      "å¸¦æĿ¥äºĨå¾Īå¤ļ": 8667,
      "ç¥ŀç»ıåħĥ": 8668,
      "å¾Ģå¾Ģä¼ļ": 8669,
      "çĸ«èĭĹæİ¥ç§į": 8670,
      "çĺ¦": 8671,
      "çŁ¥åĲįåº¦": 8672,
      "åıĺå¾Ĺè¶ĬæĿ¥è¶Ĭéĩįè¦ģ": 8673,
      "åĴĮæİ§åĪ¶": 8674,
      "äººæķ°": 8675,
      "å¦¨": 8676,
      "ç«Ń": 8677,
      "éĿ¢åĽ¢": 8678,
      "åĪĨæīĭ": 8679,
      "åĲĮä¸Ģ": 8680,
      "æīĢå¸¦æĿ¥çļĦ": 8681,
      "èĢģé¼ł": 8682,
      "ä¸»é¢ĺçļĦ": 8683,
      "ä¸įæĸŃçļĦ": 8684,
      "å®īåħ¨çļĦ": 8685,
      "æľįåĬ¡åĴĮ": 8686,
      "è¯įè¯Ń": 8687,
      "åħīä¸´": 8688,
      "çķĻåľ¨": 8689,
      "çķĻåŃ¦": 8690,
      "å¾®çĶŁçī©": 8691,
      "çļĦæīĵ": 8692,
      "æľ¬æĸĩæİ¢è®¨äºĨ": 8693,
      "è´£ä»»æĦŁ": 8694,
      "çļĦå®īåħ¨æĢ§": 8695,
      "çļĦæĶ¶åħ¥": 8696,
      "Facebook": 8697,
      "çļĦäºĭ": 8698,
      "çļĦå»ºçŃĳ": 8699,
      "åľ¨å¤ĦçĲĨ": 8700,
      "çī²": 8701,
      "åıĳéŁ³": 8702,
      "å°ıæĹ¶åĢĻ": 8703,
      "å°ĨæľīåĬ©äºİ": 8704,
      "å°±ç®Ĺ": 8705,
      "æŁłæª¬": 8706,
      "ç§ĳæĬĢè¿ĽæŃ¥": 8707,
      "æ³¨æĦıçļĦ": 8708,
      "åĶ®åĲİ": 8709,
      "è§īå¾Ĺèĩªå·±": 8710,
      "æĪĸèĢħæĺ¯": 8711,
      "å¾Īé«ĺåħ´è§ģåĪ°ä½ł": 8712,
      "çļĦçĥ¤": 8713,
      "çļĦæĥħæĦŁåĴĮ": 8714,
      "åĮĹäº¬å¸Ĥ": 8715,
      "åĤ¨åŃĺ": 8716,
      "åľ¨åĮ»çĸĹé¢ĨåŁŁ": 8717,
      "åĴĮæİ¨å¹¿": 8718,
      "å¼¦": 8719,
      "æĬĦ": 8720,
      "ä¼ļåĦ¿": 8721,
      "çļĦçĳ": 8722,
      "é«ĺç§ĳæĬĢ": 8723,
      "è¿ĺåĮħæĭ¬": 8724,
      "äº¤è°Ī": 8725,
      "éĿŀå¸¸åĸľæ¬¢": 8726,
      "åħĭéĩĮæĸ¯": 8727,
      "åħįåıĹ": 8728,
      "åİĨåı²åĴĮ": 8729,
      "è¿ĺæľīè®¸å¤ļ": 8730,
      "çļĦä¸ĢåĪĩ": 8731,
      "æķħäºĭçļĦ": 8732,
      "åıĤåĬłä¸ĢäºĽ": 8733,
      "å¹²çĩ¥": 8734,
      "åĪĿä¸ŃçĶŁ": 8735,
      "åľ£æ¯įéĻ¢": 8736,
      "ĠAI": 8737,
      "çļĦè¡£æľį": 8738,
      "ä¸Ģé¢Ĺ": 8739,
      "æľīä¸º": 8740,
      "å¯¹èº«ä½ĵåģ¥åº·": 8741,
      "æ°¢": 8742,
      "åħ¬æ°ĳ": 8743,
      "è¿ĺä¸įéĶĻ": 8744,
      "ä»ĸä»¬éľĢè¦ģ": 8745,
      "è¯¥æ®µèĲ½": 8746,
      "åİ»ä¸ĸ": 8747,
      "ä»¥ä¸ĭéĹ®é¢ĺ": 8748,
      "ä¿ĿæĮģèº«ä½ĵ": 8749,
      "å»ºè®®ä½ł": 8750,
      "å¦Ĥæŀľæľī": 8751,
      "å¦Ĥæŀľæ²¡æľī": 8752,
      "è´Łè´£ä»»": 8753,
      "æľĪä»½": 8754,
      "åĪĹä¸¾": 8755,
      "åı¦ä¸ĢäºĽäºº": 8756,
      "éĺ²èĮĥ": 8757,
      "èīºæľ¯å½¢å¼ı": 8758,
      "ç»ĨèĬĤåĴĮ": 8759,
      "å©Ĩ": 8760,
      "èģĬä»Ģä¹Ī": 8761,
      "æľĢå¤§åĮĸ": 8762,
      "åĮĸåŃ¦çī©è´¨": 8763,
      "èĿ¶": 8764,
      "çļĦæ¬¢": 8765,
      "img": 8766,
      "é»Ľçİī": 8767,
      "ä¿¡çĶ¨åį¡": 8768,
      "æĿīçŁ¶": 8769,
      "is": 8770,
      "Ġs": 8771,
      "ä¸Ī": 8772,
      "çļĦé¦ĸ": 8773,
      "æĺ¯å½ĵä»Ĭ": 8774,
[...]
